#include "magic_wand_model_data.h"


// We need to keep the data array aligned on some architectures.

#ifdef __has_attribute

#define HAVE_ATTRIBUTE(x) __has_attribute(x)

#else

#define HAVE_ATTRIBUTE(x) 0

#endif

#if HAVE_ATTRIBUTE(aligned) || (defined(__GNUC__) && !defined(__clang__))

#define DATA_ALIGN_ATTRIBUTE __attribute__((aligned(4)))

#else

#define DATA_ALIGN_ATTRIBUTE

#endif


const unsigned char g_magic_wand_model_data[] DATA_ALIGN_ATTRIBUTE = {

  0x08, 0x00, 0x00, 0x00, 0x54, 0x46, 0x4c, 0x33, 0x62, 0xff, 0xff, 0xff,
  0x03, 0x00, 0x00, 0x00, 0x10, 0x00, 0x00, 0x00, 0x24, 0x00, 0x00, 0x00,
  0x78, 0x00, 0x00, 0x00, 0x24, 0x00, 0x00, 0x00, 0x05, 0x00, 0x00, 0x00,
  0x78, 0x05, 0x00, 0x00, 0xb0, 0x04, 0x00, 0x00, 0xe0, 0x02, 0x00, 0x00,
  0x60, 0x02, 0x00, 0x00, 0x54, 0x01, 0x00, 0x00, 0x01, 0x00, 0x00, 0x00,
  0x78, 0x00, 0x00, 0x00, 0x13, 0x00, 0x00, 0x00, 0x18, 0x30, 0x00, 0x00,
  0x14, 0x30, 0x00, 0x00, 0x20, 0x2f, 0x00, 0x00, 0xa8, 0x2e, 0x00, 0x00,
  0x3c, 0x2e, 0x00, 0x00, 0xec, 0x11, 0x00, 0x00, 0x98, 0x10, 0x00, 0x00,
  0xbc, 0x0e, 0x00, 0x00, 0x60, 0x06, 0x00, 0x00, 0xfc, 0x05, 0x00, 0x00,
  0x78, 0x05, 0x00, 0x00, 0xec, 0x2f, 0x00, 0x00, 0xe8, 0x2f, 0x00, 0x00,
  0xe4, 0x2f, 0x00, 0x00, 0xe0, 0x2f, 0x00, 0x00, 0xdc, 0x2f, 0x00, 0x00,
  0xd8, 0x2f, 0x00, 0x00, 0xd4, 0x2f, 0x00, 0x00, 0xd0, 0x2f, 0x00, 0x00,
  0x0f, 0x00, 0x00, 0x00, 0x4d, 0x4c, 0x49, 0x52, 0x20, 0x43, 0x6f, 0x6e,
  0x76, 0x65, 0x72, 0x74, 0x65, 0x64, 0x2e, 0x00, 0x00, 0x00, 0x0e, 0x00,
  0x18, 0x00, 0x04, 0x00, 0x08, 0x00, 0x0c, 0x00, 0x10, 0x00, 0x14, 0x00,
  0x0e, 0x00, 0x00, 0x00, 0x14, 0x00, 0x00, 0x00, 0x5c, 0x00, 0x00, 0x00,
  0x60, 0x00, 0x00, 0x00, 0x64, 0x00, 0x00, 0x00, 0x84, 0x00, 0x00, 0x00,
  0x12, 0x00, 0x00, 0x00, 0x48, 0x2f, 0x00, 0x00, 0xe4, 0x2e, 0x00, 0x00,
  0x3c, 0x2e, 0x00, 0x00, 0xd8, 0x2d, 0x00, 0x00, 0x70, 0x2d, 0x00, 0x00,
  0x1c, 0x11, 0x00, 0x00, 0xc0, 0x0f, 0x00, 0x00, 0xe4, 0x0d, 0x00, 0x00,
  0xa0, 0x05, 0x00, 0x00, 0x3c, 0x05, 0x00, 0x00, 0xb0, 0x04, 0x00, 0x00,
  0xe8, 0x03, 0x00, 0x00, 0x38, 0x03, 0x00, 0x00, 0xa4, 0x02, 0x00, 0x00,
  0x10, 0x02, 0x00, 0x00, 0x90, 0x01, 0x00, 0x00, 0xfc, 0x00, 0x00, 0x00,
  0x80, 0x00, 0x00, 0x00, 0x01, 0x00, 0x00, 0x00, 0x00, 0x00, 0x00, 0x00,
  0x01, 0x00, 0x00, 0x00, 0x11, 0x00, 0x00, 0x00, 0x08, 0x00, 0x00, 0x00,
  0x1c, 0x04, 0x00, 0x00, 0x58, 0x03, 0x00, 0x00, 0xc8, 0x02, 0x00, 0x00,
  0x24, 0x02, 0x00, 0x00, 0xac, 0x01, 0x00, 0x00, 0x10, 0x01, 0x00, 0x00,
  0x94, 0x00, 0x00, 0x00, 0x10, 0x00, 0x00, 0x00, 0x04, 0x00, 0x00, 0x00,
  0x6d, 0x61, 0x69, 0x6e, 0x00, 0x00, 0x00, 0x00, 0x8e, 0xff, 0xff, 0xff,
  0x00, 0x00, 0x00, 0x09, 0x04, 0x00, 0x00, 0x00, 0x1c, 0x00, 0x00, 0x00,
  0x10, 0x00, 0x00, 0x00, 0x04, 0x00, 0x00, 0x00, 0x0a, 0xd2, 0xff, 0xff,
  0x00, 0x00, 0x80, 0x3f, 0x01, 0x00, 0x00, 0x00, 0x11, 0x00, 0x00, 0x00,
  0x01, 0x00, 0x00, 0x00, 0x10, 0x00, 0x00, 0x00, 0xf6, 0xfb, 0xff, 0xff,
  0x00, 0x00, 0x00, 0x19, 0x01, 0x00, 0x00, 0x00, 0x8a, 0xd1, 0xff, 0xff,
  0x10, 0x00, 0x00, 0x00, 0x12, 0x00, 0x00, 0x00, 0x14, 0x00, 0x00, 0x00,
  0x20, 0x00, 0x00, 0x00, 0x02, 0x00, 0x00, 0x00, 0x01, 0x00, 0x00, 0x00,
  0x04, 0x00, 0x00, 0x00, 0x08, 0x00, 0x00, 0x00, 0x49, 0x64, 0x65, 0x6e,
  0x74, 0x69, 0x74, 0x79, 0x00, 0x00, 0x00, 0x00, 0xc4, 0xd1, 0xff, 0xff,
  0x00, 0x00, 0x0e, 0x00, 0x18, 0x00, 0x08, 0x00, 0x0c, 0x00, 0x10, 0x00,
  0x07, 0x00, 0x14, 0x00, 0x0e, 0x00, 0x00, 0x00, 0x00, 0x00, 0x00, 0x08,
  0x03, 0x00, 0x00, 0x00, 0x18, 0x00, 0x00, 0x00, 0x0c, 0x00, 0x00, 0x00,
  0x04, 0x00, 0x00, 0x00, 0x98, 0xd1, 0xff, 0xff, 0x01, 0x00, 0x00, 0x00,
  0x10, 0x00, 0x00, 0x00, 0x03, 0x00, 0x00, 0x00, 0x0f, 0x00, 0x00, 0x00,
  0x05, 0x00, 0x00, 0x00, 0x02, 0x00, 0x00, 0x00, 0x02, 0xd2, 0xff, 0xff,
  0x10, 0x00, 0x00, 0x00, 0x11, 0x00, 0x00, 0x00, 0x14, 0x00, 0x00, 0x00,
  0x30, 0x00, 0x00, 0x00, 0x02, 0x00, 0x00, 0x00, 0x01, 0x00, 0x00, 0x00,
  0x04, 0x00, 0x00, 0x00, 0x1a, 0x00, 0x00, 0x00, 0x73, 0x65, 0x71, 0x75,
  0x65, 0x6e, 0x74, 0x69, 0x61, 0x6c, 0x2f, 0x64, 0x65, 0x6e, 0x73, 0x65,
  0x5f, 0x31, 0x2f, 0x42, 0x69, 0x61, 0x73, 0x41, 0x64, 0x64, 0x00, 0x00,
  0xf4, 0xd1, 0xff, 0xff, 0xd6, 0xfd, 0xff, 0xff, 0x00, 0x00, 0x00, 0x08,
  0x03, 0x00, 0x00, 0x00, 0x24, 0x00, 0x00, 0x00, 0x18, 0x00, 0x00, 0x00,
  0x0c, 0x00, 0x00, 0x00, 0x00, 0x00, 0x06, 0x00, 0x08, 0x00, 0x07, 0x00,
  0x06, 0x00, 0x00, 0x00, 0x00, 0x00, 0x00, 0x01, 0x01, 0x00, 0x00, 0x00,
  0x0f, 0x00, 0x00, 0x00, 0x03, 0x00, 0x00, 0x00, 0x0e, 0x00, 0x00, 0x00,
  0x04, 0x00, 0x00, 0x00, 0x01, 0x00, 0x00, 0x00, 0xfe, 0xfc, 0xff, 0xff,
  0x00, 0x00, 0x00, 0x09, 0x01, 0x00, 0x00, 0x00, 0x92, 0xd2, 0xff, 0xff,
  0x10, 0x00, 0x00, 0x00, 0x10, 0x00, 0x00, 0x00, 0x14, 0x00, 0x00, 0x00,
  0x2c, 0x00, 0x00, 0x00, 0x02, 0x00, 0x00, 0x00, 0x01, 0x00, 0x00, 0x00,
  0x10, 0x00, 0x00, 0x00, 0x15, 0x00, 0x00, 0x00, 0x73, 0x65, 0x71, 0x75,
  0x65, 0x6e, 0x74, 0x69, 0x61, 0x6c, 0x2f, 0x64, 0x65, 0x6e, 0x73, 0x65,
  0x2f, 0x52, 0x65, 0x6c, 0x75, 0x00, 0x00, 0x00, 0xd8, 0xd2, 0xff, 0xff,
  0x00, 0x00, 0x0a, 0x00, 0x10, 0x00, 0x04, 0x00, 0x08, 0x00, 0x0c, 0x00,
  0x0a, 0x00, 0x00, 0x00, 0x02, 0x00, 0x00, 0x00, 0x10, 0x00, 0x00, 0x00,
  0x04, 0x00, 0x00, 0x00, 0x01, 0x00, 0x00, 0x00, 0x0e, 0x00, 0x00, 0x00,
  0x02, 0x00, 0x00, 0x00, 0x0d, 0x00, 0x00, 0x00, 0x03, 0x00, 0x00, 0x00,
  0x7a, 0xfd, 0xff, 0xff, 0x00, 0x00, 0x00, 0x16, 0x01, 0x00, 0x00, 0x00,
  0x0e, 0xd3, 0xff, 0xff, 0x10, 0x00, 0x00, 0x00, 0x0f, 0x00, 0x00, 0x00,
  0x14, 0x00, 0x00, 0x00, 0x30, 0x00, 0x00, 0x00, 0x02, 0x00, 0x00, 0x00,
  0x01, 0x00, 0x00, 0x00, 0x70, 0x00, 0x00, 0x00, 0x1a, 0x00, 0x00, 0x00,
  0x73, 0x65, 0x71, 0x75, 0x65, 0x6e, 0x74, 0x69, 0x61, 0x6c, 0x2f, 0x66,
  0x6c, 0x61, 0x74, 0x74, 0x65, 0x6e, 0x2f, 0x52, 0x65, 0x73, 0x68, 0x61,
  0x70, 0x65, 0x00, 0x00, 0x00, 0xd3, 0xff, 0xff, 0xe2, 0xfe, 0xff, 0xff,
  0x00, 0x00, 0x00, 0x05, 0x01, 0x00, 0x00, 0x00, 0x38, 0x00, 0x00, 0x00,
  0x2c, 0x00, 0x00, 0x00, 0x14, 0x00, 0x00, 0x00, 0x00, 0x00, 0x0e, 0x00,
  0x14, 0x00, 0x00, 0x00, 0x10, 0x00, 0x0c, 0x00, 0x08, 0x00, 0x04, 0x00,
  0x0e, 0x00, 0x00, 0x00, 0x03, 0x00, 0x00, 0x00, 0x01, 0x00, 0x00, 0x00,
  0x03, 0x00, 0x00, 0x00, 0x01, 0x00, 0x00, 0x00, 0x01, 0x00, 0x00, 0x00,
  0x0d, 0x00, 0x00, 0x00, 0x01, 0x00, 0x00, 0x00, 0x0c, 0x00, 0x00, 0x00,
  0x9e, 0xd3, 0xff, 0xff, 0x10, 0x00, 0x00, 0x00, 0x0e, 0x00, 0x00, 0x00,
  0x1c, 0x00, 0x00, 0x00, 0x40, 0x00, 0x00, 0x00, 0x04, 0x00, 0x00, 0x00,
  0x01, 0x00, 0x00, 0x00, 0x07, 0x00, 0x00, 0x00, 0x01, 0x00, 0x00, 0x00,
  0x10, 0x00, 0x00, 0x00, 0x22, 0x00, 0x00, 0x00, 0x73, 0x65, 0x71, 0x75,
  0x65, 0x6e, 0x74, 0x69, 0x61, 0x6c, 0x2f, 0x6d, 0x61, 0x78, 0x5f, 0x70,
  0x6f, 0x6f, 0x6c, 0x69, 0x6e, 0x67, 0x32, 0x64, 0x5f, 0x31, 0x2f, 0x4d,
  0x61, 0x78, 0x50, 0x6f, 0x6f, 0x6c, 0x00, 0x00, 0xa0, 0xd3, 0xff, 0xff,
  0xc2, 0xfe, 0xff, 0xff, 0x00, 0x00, 0x00, 0x01, 0x24, 0x00, 0x00, 0x00,
  0x18, 0x00, 0x00, 0x00, 0x04, 0x00, 0x00, 0x00, 0xb4, 0xfe, 0xff, 0xff,
  0x01, 0x00, 0x00, 0x00, 0x01, 0x00, 0x00, 0x00, 0x00, 0x00, 0x00, 0x01,
  0x01, 0x00, 0x00, 0x00, 0x0c, 0x00, 0x00, 0x00, 0x03, 0x00, 0x00, 0x00,
  0x0b, 0x00, 0x00, 0x00, 0x07, 0x00, 0x00, 0x00, 0x09, 0x00, 0x00, 0x00,
  0x2e, 0xd4, 0xff, 0xff, 0x10, 0x00, 0x00, 0x00, 0x0d, 0x00, 0x00, 0x00,
  0x1c, 0x00, 0x00, 0x00, 0x2c, 0x00, 0x00, 0x00, 0x04, 0x00, 0x00, 0x00,
  0x01, 0x00, 0x00, 0x00, 0x15, 0x00, 0x00, 0x00, 0x01, 0x00, 0x00, 0x00,
  0x10, 0x00, 0x00, 0x00, 0x0c, 0x00, 0x00, 0x00, 0x74, 0x66, 0x6c, 0x2e,
  0x63, 0x6f, 0x6e, 0x76, 0x5f, 0x32, 0x64, 0x31, 0x00, 0x00, 0x00, 0x00,
  0x74, 0xd4, 0xff, 0xff, 0x00, 0x00, 0x0e, 0x00, 0x1a, 0x00, 0x08, 0x00,
  0x0c, 0x00, 0x10, 0x00, 0x07, 0x00, 0x14, 0x00, 0x0e, 0x00, 0x00, 0x00,
  0x00, 0x00, 0x00, 0x05, 0x01, 0x00, 0x00, 0x00, 0x3c, 0x00, 0x00, 0x00,
  0x30, 0x00, 0x00, 0x00, 0x14, 0x00, 0x00, 0x00, 0x00, 0x00, 0x0e, 0x00,
  0x18, 0x00, 0x17, 0x00, 0x10, 0x00, 0x0c, 0x00, 0x08, 0x00, 0x04, 0x00,
  0x0e, 0x00, 0x00, 0x00, 0x03, 0x00, 0x00, 0x00, 0x03, 0x00, 0x00, 0x00,
  0x03, 0x00, 0x00, 0x00, 0x03, 0x00, 0x00, 0x00, 0x00, 0x00, 0x00, 0x01,
  0x01, 0x00, 0x00, 0x00, 0x0b, 0x00, 0x00, 0x00, 0x01, 0x00, 0x00, 0x00,
  0x0a, 0x00, 0x00, 0x00, 0x46, 0xff, 0xff, 0xff, 0x00, 0x00, 0x00, 0x11,
  0x01, 0x00, 0x00, 0x00, 0xda, 0xd4, 0xff, 0xff, 0x10, 0x00, 0x00, 0x00,
  0x0c, 0x00, 0x00, 0x00, 0x1c, 0x00, 0x00, 0x00, 0x40, 0x00, 0x00, 0x00,
  0x04, 0x00, 0x00, 0x00, 0x01, 0x00, 0x00, 0x00, 0x15, 0x00, 0x00, 0x00,
  0x01, 0x00, 0x00, 0x00, 0x08, 0x00, 0x00, 0x00, 0x20, 0x00, 0x00, 0x00,
  0x73, 0x65, 0x71, 0x75, 0x65, 0x6e, 0x74, 0x69, 0x61, 0x6c, 0x2f, 0x6d,
  0x61, 0x78, 0x5f, 0x70, 0x6f, 0x6f, 0x6c, 0x69, 0x6e, 0x67, 0x32, 0x64,
  0x2f, 0x4d, 0x61, 0x78, 0x50, 0x6f, 0x6f, 0x6c, 0x00, 0x00, 0x00, 0x00,
  0x34, 0xd5, 0xff, 0xff, 0x00, 0x00, 0x0e, 0x00, 0x14, 0x00, 0x00, 0x00,
  0x08, 0x00, 0x0c, 0x00, 0x07, 0x00, 0x10, 0x00, 0x0e, 0x00, 0x00, 0x00,
  0x00, 0x00, 0x00, 0x01, 0x30, 0x00, 0x00, 0x00, 0x24, 0x00, 0x00, 0x00,
  0x10, 0x00, 0x00, 0x00, 0x0c, 0x00, 0x10, 0x00, 0x00, 0x00, 0x04, 0x00,
  0x08, 0x00, 0x0f, 0x00, 0x0c, 0x00, 0x00, 0x00, 0x01, 0x00, 0x00, 0x00,
  0x01, 0x00, 0x00, 0x00, 0x00, 0x00, 0x00, 0x01, 0x01, 0x00, 0x00, 0x00,
  0x0a, 0x00, 0x00, 0x00, 0x03, 0x00, 0x00, 0x00, 0x00, 0x00, 0x00, 0x00,
  0x06, 0x00, 0x00, 0x00, 0x08, 0x00, 0x00, 0x00, 0x00, 0x00, 0x0a, 0x00,
  0x0c, 0x00, 0x07, 0x00, 0x00, 0x00, 0x08, 0x00, 0x0a, 0x00, 0x00, 0x00,
  0x00, 0x00, 0x00, 0x03, 0x01, 0x00, 0x00, 0x00, 0x9e, 0xd5, 0xff, 0xff,
  0x10, 0x00, 0x00, 0x00, 0x0b, 0x00, 0x00, 0x00, 0x1c, 0x00, 0x00, 0x00,
  0x28, 0x00, 0x00, 0x00, 0x04, 0x00, 0x00, 0x00, 0x01, 0x00, 0x00, 0x00,
  0x40, 0x00, 0x00, 0x00, 0x03, 0x00, 0x00, 0x00, 0x08, 0x00, 0x00, 0x00,
  0x0b, 0x00, 0x00, 0x00, 0x74, 0x66, 0x6c, 0x2e, 0x63, 0x6f, 0x6e, 0x76,
  0x5f, 0x32, 0x64, 0x00, 0x88, 0xd5, 0xff, 0xff, 0x7e, 0xd6, 0xff, 0xff,
  0x04, 0x00, 0x00, 0x00, 0x40, 0x00, 0x00, 0x00, 0x5c, 0x95, 0xdf, 0xbd,
  0x24, 0x3b, 0xbb, 0xbe, 0xb4, 0xf3, 0xe4, 0xbd, 0x9f, 0xb2, 0x02, 0x40,
  0x0e, 0xfa, 0xb6, 0xbf, 0x6d, 0xec, 0xa1, 0xbf, 0x19, 0x49, 0xa2, 0xbf,
  0x21, 0x7d, 0xad, 0xbf, 0x64, 0xa9, 0x2c, 0xbf, 0xab, 0x62, 0x0e, 0x3e,
  0x85, 0xac, 0xb6, 0x3e, 0x20, 0xde, 0x94, 0x40, 0x38, 0xae, 0xe2, 0x3c,
  0xc4, 0x83, 0xba, 0xbe, 0xe8, 0x94, 0x90, 0xbf, 0x46, 0x0b, 0xdd, 0xbe,
  0x26, 0xd6, 0xff, 0xff, 0x10, 0x00, 0x00, 0x00, 0x0a, 0x00, 0x00, 0x00,
  0x10, 0x00, 0x00, 0x00, 0x20, 0x00, 0x00, 0x00, 0x01, 0x00, 0x00, 0x00,
  0x10, 0x00, 0x00, 0x00, 0x0d, 0x00, 0x00, 0x00, 0x73, 0x74, 0x64, 0x2e,
  0x63, 0x6f, 0x6e, 0x73, 0x74, 0x61, 0x6e, 0x74, 0x31, 0x00, 0x00, 0x00,
  0x08, 0xd6, 0xff, 0xff, 0xfe, 0xd6, 0xff, 0xff, 0x04, 0x00, 0x00, 0x00,
  0x20, 0x00, 0x00, 0x00, 0x36, 0x91, 0xe6, 0xbf, 0x53, 0x94, 0x8f, 0xbf,
  0x81, 0x59, 0xbf, 0xbf, 0x49, 0x53, 0xd4, 0xbd, 0xb6, 0xf4, 0xac, 0xbf,
  0x6b, 0x4f, 0xad, 0xbf, 0xa9, 0x64, 0x11, 0xc0, 0xba, 0x66, 0xe1, 0xbf,
  0x86, 0xd6, 0xff, 0xff, 0x10, 0x00, 0x00, 0x00, 0x09, 0x00, 0x00, 0x00,
  0x10, 0x00, 0x00, 0x00, 0x20, 0x00, 0x00, 0x00, 0x01, 0x00, 0x00, 0x00,
  0x08, 0x00, 0x00, 0x00, 0x0c, 0x00, 0x00, 0x00, 0x73, 0x74, 0x64, 0x2e,
  0x63, 0x6f, 0x6e, 0x73, 0x74, 0x61, 0x6e, 0x74, 0x00, 0x00, 0x00, 0x00,
  0x68, 0xd6, 0xff, 0xff, 0x5e, 0xd7, 0xff, 0xff, 0x04, 0x00, 0x00, 0x00,
  0x00, 0x08, 0x00, 0x00, 0xc5, 0xb8, 0x0d, 0x3e, 0x1c, 0xe4, 0xfa, 0xbd,
  0x33, 0x75, 0x86, 0x3b, 0x49, 0x72, 0x7b, 0xbd, 0xea, 0x57, 0x98, 0x3c,
  0x88, 0xde, 0x8b, 0xbd, 0x4f, 0x14, 0xd2, 0xbd, 0xf7, 0x94, 0xf2, 0xbd,
  0xd8, 0xe6, 0x81, 0xbd, 0x2e, 0xeb, 0xd4, 0x3d, 0xf5, 0x0e, 0x6f, 0xbd,
  0x7d, 0x44, 0xda, 0x3e, 0x44, 0x91, 0x29, 0x3d, 0x3b, 0xae, 0xbe, 0xbe,
  0xb2, 0x6c, 0x7e, 0x3d, 0xce, 0x4e, 0xb7, 0xbe, 0x0d, 0x73, 0xec, 0xbb,
  0x1b, 0xed, 0x9f, 0xbc, 0xed, 0xd5, 0x7c, 0xbd, 0x2b, 0x45, 0x65, 0xbd,
  0x8f, 0x9d, 0xbc, 0xbe, 0xa0, 0xcd, 0xb1, 0xbd, 0x82, 0x2f, 0xb0, 0x3e,
  0x6e, 0x8a, 0x62, 0xbe, 0x6a, 0xc1, 0xc6, 0xbd, 0x7c, 0xad, 0x30, 0xbc,
  0x84, 0x93, 0x9d, 0xbd, 0xeb, 0x04, 0xf2, 0xbc, 0x74, 0x21, 0x81, 0x3d,
  0xc8, 0x3f, 0xf0, 0x3d, 0x56, 0xe4, 0x9f, 0x3b, 0xbb, 0xfd, 0x03, 0x3c,
  0x53, 0x99, 0x52, 0x3d, 0xa3, 0xc5, 0xaa, 0x3d, 0x14, 0x4a, 0xaa, 0xbe,
  0x02, 0x05, 0xa4, 0x3d, 0x14, 0xf3, 0x5c, 0xbe, 0xb4, 0x7f, 0x5b, 0xbe,
  0x50, 0xbd, 0x2e, 0x3d, 0x62, 0x1c, 0x0d, 0xbe, 0x34, 0xbf, 0xfb, 0xbd,
  0x6e, 0x46, 0x91, 0x3e, 0x1c, 0x18, 0xf5, 0xbe, 0xa7, 0x64, 0x91, 0x3b,
  0x77, 0xc8, 0x0a, 0x3f, 0x93, 0xdf, 0xba, 0xbe, 0x0a, 0x57, 0xe0, 0x3d,
  0x04, 0x8f, 0xc1, 0xbe, 0xa6, 0xc0, 0xe2, 0x3d, 0xc2, 0x62, 0x30, 0x3e,
  0x5c, 0x80, 0x11, 0xbf, 0x08, 0xff, 0x8b, 0x3c, 0x27, 0x45, 0x81, 0xbd,
  0xa3, 0xe6, 0x01, 0xbe, 0xd2, 0x3c, 0x74, 0x3e, 0x72, 0x33, 0x0e, 0xbe,
  0x71, 0xdc, 0x3f, 0xbd, 0x01, 0x63, 0x3f, 0x3e, 0x73, 0xac, 0xee, 0xbe,
  0x97, 0xf2, 0xaa, 0x3c, 0xc5, 0x04, 0x21, 0x3e, 0x5f, 0xe1, 0x96, 0xbd,
  0xdd, 0x6e, 0x5d, 0x3e, 0xd6, 0x55, 0x8e, 0x3d, 0xc1, 0xf4, 0x00, 0x3e,
  0x7c, 0x3a, 0x3e, 0xbc, 0x87, 0x2a, 0xdf, 0xbd, 0xbd, 0xe4, 0x2e, 0xbe,
  0x8c, 0xd3, 0xd1, 0x3d, 0xe4, 0xf2, 0xae, 0xbe, 0x78, 0x32, 0xdf, 0x3e,
  0x94, 0xb2, 0xf4, 0xbd, 0x72, 0xe4, 0x46, 0x3e, 0xca, 0xef, 0xc4, 0x3e,
  0x89, 0x63, 0x32, 0xbe, 0x9a, 0xf5, 0x58, 0xbe, 0xa4, 0x5f, 0x4b, 0x3e,
  0xe0, 0xf5, 0x80, 0xbe, 0x63, 0x1d, 0x94, 0x3d, 0x3c, 0x21, 0x45, 0xbe,
  0x11, 0x8a, 0xa2, 0x3c, 0x6a, 0x0c, 0x20, 0xbe, 0xf4, 0x9d, 0x12, 0xbf,
  0x24, 0xef, 0x65, 0xbd, 0x9d, 0x29, 0x07, 0xbe, 0x28, 0x53, 0x9b, 0xbe,
  0xed, 0xc8, 0xb6, 0x3d, 0x6d, 0x75, 0x89, 0xbe, 0xb2, 0x09, 0x8c, 0x3e,
  0x5e, 0x1f, 0xa7, 0x3e, 0x75, 0xff, 0x05, 0xbf, 0x5a, 0x15, 0x02, 0xbe,
  0x4f, 0xc9, 0x95, 0x3e, 0xe2, 0xd2, 0x29, 0xbe, 0x77, 0xe8, 0x3c, 0x3e,
  0x59, 0xa7, 0x84, 0xbd, 0x3d, 0xbc, 0xa4, 0xbd, 0x0d, 0x40, 0xd9, 0xbe,
  0x3b, 0x16, 0x7f, 0xbe, 0x09, 0x85, 0x07, 0xbe, 0x91, 0x82, 0xa9, 0xbe,
  0x2c, 0xf1, 0x72, 0xbe, 0x27, 0x70, 0x83, 0xbe, 0x91, 0xf3, 0x97, 0xbe,
  0xec, 0xec, 0x08, 0x3e, 0x6e, 0x9c, 0xe5, 0xbe, 0xc9, 0xaa, 0x41, 0xbe,
  0xbc, 0x53, 0xe2, 0xbd, 0x0c, 0xcf, 0x97, 0xbd, 0xec, 0x70, 0xc0, 0x3d,
  0x92, 0xb9, 0x0f, 0x3e, 0x71, 0x3a, 0x7a, 0xbd, 0x10, 0x34, 0x78, 0xbe,
  0x42, 0x74, 0x9e, 0xbe, 0xb7, 0x9a, 0xcf, 0xbd, 0x64, 0x3d, 0xfa, 0x3b,
  0xa9, 0x6d, 0x80, 0xbe, 0x1e, 0x6f, 0xaf, 0x3d, 0x06, 0xf0, 0xd7, 0xbe,
  0x2f, 0xc6, 0x82, 0xbd, 0x3d, 0x84, 0x63, 0x3d, 0x97, 0x61, 0xba, 0xbd,
  0xb1, 0x7c, 0x89, 0xbc, 0x4d, 0xef, 0xe5, 0xbd, 0x92, 0x6d, 0xaa, 0x39,
  0x01, 0xa0, 0x82, 0x3e, 0xea, 0x4c, 0xac, 0x3d, 0xb8, 0xf4, 0x8e, 0xbd,
  0x4e, 0xab, 0x3a, 0x3e, 0x93, 0xc5, 0xde, 0xbd, 0x6b, 0x12, 0x88, 0xbe,
  0xb4, 0x86, 0xab, 0xbd, 0xad, 0xc7, 0x55, 0x3d, 0xe0, 0x86, 0x4e, 0xbd,
  0x20, 0xb9, 0x9f, 0x3e, 0x47, 0x34, 0x21, 0xbd, 0x55, 0xca, 0x69, 0x3e,
  0x39, 0x19, 0xe3, 0xbc, 0x52, 0x10, 0x41, 0xbe, 0x86, 0x17, 0x9f, 0xbd,
  0x5a, 0xf4, 0x15, 0x3c, 0x25, 0x1c, 0x91, 0xbd, 0x52, 0x18, 0x29, 0x3e,
  0x0a, 0xc6, 0x8b, 0xbd, 0x04, 0x6d, 0xae, 0x3d, 0xa3, 0xef, 0xff, 0xbc,
  0xdd, 0x4b, 0xc6, 0xbd, 0xe1, 0xbc, 0x52, 0xbd, 0x12, 0xd1, 0x3f, 0x3e,
  0xc0, 0x2e, 0x5e, 0xbd, 0xf9, 0x32, 0x0b, 0x3f, 0x93, 0x80, 0x7b, 0xbd,
  0x83, 0xe2, 0x49, 0x3e, 0x03, 0xa6, 0xbf, 0x3c, 0xaf, 0xe2, 0x83, 0xbc,
  0xb5, 0x66, 0x1b, 0xbd, 0x21, 0xd2, 0x32, 0x3d, 0x89, 0xcc, 0x66, 0xbc,
  0x83, 0x4f, 0xbb, 0x3e, 0x11, 0xee, 0xe1, 0x3c, 0xe9, 0x23, 0x82, 0x3d,
  0xb2, 0x99, 0xe6, 0x3e, 0xb9, 0x8c, 0x0b, 0xbc, 0xc2, 0xd4, 0x0b, 0x3e,
  0x69, 0x7e, 0x78, 0x3e, 0x2f, 0xd9, 0x0d, 0xbf, 0x9b, 0x4b, 0x7c, 0x3e,
  0xfd, 0x8a, 0x44, 0xbf, 0x94, 0x7e, 0x3a, 0xbc, 0x01, 0xc5, 0xa4, 0x3e,
  0xe8, 0xd7, 0x02, 0xbe, 0xc8, 0x08, 0x77, 0xbe, 0x5f, 0xe1, 0x33, 0xbf,
  0xb1, 0x58, 0x51, 0xbe, 0xb5, 0x34, 0x8c, 0x3d, 0x72, 0xf3, 0x88, 0xbe,
  0x04, 0xbd, 0x91, 0xbc, 0xae, 0xcc, 0x04, 0xbe, 0xa5, 0x42, 0xbe, 0xbd,
  0xe6, 0x35, 0x4c, 0xbd, 0x5d, 0xea, 0x1b, 0xbe, 0x33, 0x94, 0xea, 0x3c,
  0xc4, 0x7c, 0xb2, 0x3e, 0x20, 0x3e, 0x96, 0x3d, 0x46, 0x2e, 0x9e, 0x3c,
  0x52, 0x78, 0x31, 0xbf, 0x71, 0x51, 0xf2, 0xbe, 0x76, 0x82, 0x6f, 0xbd,
  0x78, 0xae, 0x1a, 0x3e, 0x3e, 0x1a, 0x1d, 0x3d, 0x7b, 0xfb, 0xb9, 0xbe,
  0x71, 0xc7, 0xab, 0x3d, 0x1a, 0x68, 0xb9, 0xbe, 0x4b, 0x42, 0x0e, 0xbf,
  0x45, 0x3b, 0x4a, 0xbe, 0xe2, 0x01, 0x9a, 0xbe, 0x88, 0x04, 0xa0, 0xbe,
  0x67, 0x37, 0x00, 0x3b, 0xec, 0xfb, 0xc6, 0xbe, 0xdf, 0xce, 0x1b, 0xbc,
  0x2b, 0x0e, 0x2c, 0x3d, 0x3e, 0xbd, 0x67, 0xbd, 0xd2, 0xaa, 0x46, 0xbd,
  0x47, 0x41, 0x87, 0xbe, 0xaa, 0xf6, 0xf6, 0x3d, 0x34, 0x75, 0xa9, 0x3d,
  0xba, 0x89, 0x4f, 0xbe, 0x3c, 0x40, 0xb2, 0x3b, 0xeb, 0x44, 0x23, 0x3f,
  0xb5, 0x8d, 0x28, 0xbe, 0xe5, 0x2f, 0x27, 0xbe, 0x4e, 0x7a, 0x45, 0xbe,
  0xb7, 0x3d, 0x0d, 0x3b, 0x6b, 0x27, 0xc0, 0x3c, 0x5d, 0x47, 0x46, 0x3d,
  0x15, 0x3b, 0xc7, 0x3c, 0x3f, 0x61, 0x00, 0x3e, 0x2c, 0x56, 0x81, 0xbe,
  0x8e, 0xe5, 0x7d, 0xbe, 0x8f, 0xc4, 0xa3, 0xbe, 0xec, 0x72, 0x8c, 0x3e,
  0x85, 0x71, 0x61, 0x3d, 0x91, 0xc2, 0xf3, 0x3d, 0x4a, 0x6e, 0x22, 0x3d,
  0x66, 0x71, 0x79, 0x3c, 0x20, 0xb9, 0x4f, 0xbe, 0x06, 0x61, 0x82, 0xbe,
  0xe8, 0x2b, 0xcb, 0xbd, 0xa9, 0x93, 0x19, 0xbe, 0x8f, 0x9b, 0x99, 0xbd,
  0xf3, 0xf8, 0xe7, 0x3e, 0xf1, 0xff, 0xe6, 0xbd, 0xca, 0x56, 0xb3, 0xbe,
  0xc4, 0x8c, 0xc6, 0x3b, 0xd8, 0xbf, 0x2b, 0xbe, 0xb6, 0x32, 0xe8, 0xbc,
  0xe3, 0xd0, 0x5f, 0xbe, 0x30, 0xe1, 0xb6, 0xbd, 0x73, 0x37, 0x97, 0xbd,
  0xfa, 0xf3, 0x00, 0xbe, 0x30, 0x9d, 0xb7, 0x3b, 0x8e, 0x9a, 0x86, 0x3e,
  0x13, 0x0e, 0xd1, 0xbd, 0x06, 0x9e, 0xc1, 0xbc, 0x19, 0x2f, 0xb5, 0xbe,
  0xf4, 0xc7, 0x5d, 0xbd, 0x57, 0x14, 0x62, 0x3e, 0x33, 0x28, 0xa2, 0xbd,
  0x8d, 0x65, 0x87, 0x3e, 0x8d, 0xe7, 0x71, 0x3e, 0x2a, 0xa3, 0x7c, 0xbc,
  0x21, 0x65, 0x54, 0xbc, 0xbc, 0x68, 0xa3, 0xbc, 0x2e, 0xbe, 0xa0, 0x3e,
  0x0b, 0x83, 0x96, 0x3e, 0x39, 0x9b, 0x91, 0x3c, 0x16, 0x41, 0x3a, 0xbf,
  0x6b, 0x35, 0xc9, 0xbe, 0x81, 0x7f, 0x47, 0xbe, 0xf5, 0xb5, 0xaa, 0xbd,
  0xf3, 0x9e, 0xe2, 0xbe, 0x7e, 0x95, 0x69, 0xbc, 0x9d, 0xb0, 0x4c, 0xbf,
  0xbe, 0x10, 0xbc, 0xbd, 0x89, 0xee, 0x83, 0xbd, 0x24, 0xac, 0x31, 0xbf,
  0xe1, 0xff, 0x24, 0xbe, 0x58, 0x95, 0x90, 0xbd, 0xde, 0x6e, 0x9d, 0x3e,
  0x09, 0xf9, 0xec, 0x3c, 0xfa, 0xf9, 0x7c, 0xbe, 0x21, 0x84, 0x39, 0xbd,
  0xbc, 0x17, 0x2b, 0x3e, 0xe8, 0x72, 0xea, 0xbe, 0xe3, 0x02, 0x15, 0xbe,
  0xba, 0x2c, 0x52, 0x3d, 0x84, 0xd5, 0x9f, 0x3e, 0xa2, 0x46, 0x8a, 0xbd,
  0x01, 0x5c, 0xa9, 0x3e, 0x8b, 0x48, 0xce, 0xbd, 0x4b, 0xd0, 0x69, 0x3b,
  0xc1, 0x6a, 0xa2, 0x3e, 0x72, 0x65, 0x68, 0xbe, 0xd4, 0xed, 0x9b, 0x3d,
  0xee, 0x6e, 0xdc, 0x3e, 0x0d, 0xf1, 0xc2, 0xbd, 0x2e, 0x04, 0xb5, 0xbd,
  0xda, 0x3e, 0xe5, 0xbd, 0x0b, 0x7d, 0x52, 0xbe, 0xe8, 0x33, 0x9f, 0x3d,
  0xa7, 0x97, 0x55, 0xbd, 0x4a, 0x80, 0x4e, 0x3e, 0x58, 0x90, 0x29, 0xbe,
  0x15, 0xe5, 0xf9, 0x3c, 0x5a, 0x4a, 0x0a, 0xbe, 0x3b, 0x36, 0x93, 0xbd,
  0xf1, 0x4e, 0xb3, 0xbd, 0xca, 0x2b, 0xec, 0xbc, 0x47, 0x66, 0x42, 0xbd,
  0x3d, 0x89, 0x95, 0x3d, 0x0c, 0xe9, 0x27, 0x3e, 0xc2, 0x8b, 0x49, 0xbc,
  0xe3, 0xee, 0xb6, 0x3d, 0xec, 0xa7, 0xc9, 0xbd, 0xda, 0xca, 0x46, 0x3d,
  0x40, 0x6a, 0x06, 0x3b, 0xd8, 0xf8, 0x7e, 0xbd, 0x99, 0x25, 0xc6, 0x3b,
  0x69, 0xa2, 0x12, 0x3e, 0x53, 0xb6, 0xe5, 0x3b, 0x6c, 0x93, 0x32, 0x3d,
  0x63, 0x59, 0x89, 0xbd, 0x4b, 0x1b, 0xa9, 0x3d, 0x75, 0x22, 0x56, 0xbd,
  0xfe, 0xc7, 0x84, 0xbd, 0x9f, 0x61, 0x65, 0xbd, 0x81, 0xdc, 0xe1, 0x3d,
  0xad, 0x0c, 0xca, 0x3d, 0x8d, 0x63, 0xaa, 0x3d, 0x61, 0xff, 0x3c, 0x3e,
  0x15, 0x3c, 0xe6, 0xbe, 0x42, 0x5f, 0x8d, 0xbe, 0x42, 0x6c, 0x1c, 0xbc,
  0x5e, 0x72, 0x8a, 0xbe, 0x99, 0xcb, 0x04, 0xbf, 0x32, 0x71, 0xaf, 0xbe,
  0x9a, 0xc1, 0x5c, 0xbe, 0xc8, 0xcc, 0x3d, 0x3d, 0x86, 0x36, 0x05, 0xbf,
  0x28, 0x44, 0x1b, 0x3d, 0xfb, 0x23, 0x4b, 0xbd, 0xbb, 0x39, 0x97, 0xbe,
  0x2b, 0x7f, 0x8e, 0xbe, 0x8c, 0xa0, 0x53, 0xbe, 0x33, 0x6a, 0x4e, 0x3d,
  0x7c, 0x36, 0x96, 0x3e, 0x46, 0x07, 0x09, 0xbf, 0xbd, 0xe6, 0xdf, 0xbc,
  0x90, 0x37, 0x1a, 0xbd, 0x05, 0x40, 0xf5, 0xbe, 0x34, 0xae, 0xf4, 0xbe,
  0x7f, 0x1a, 0x33, 0xbe, 0xed, 0x6d, 0x76, 0x3e, 0x5a, 0xd2, 0x8f, 0xbd,
  0x75, 0x7f, 0x8d, 0xbe, 0x05, 0x7c, 0x6f, 0x3d, 0xf8, 0xfc, 0xd7, 0x3d,
  0xfd, 0x2d, 0xc1, 0xbe, 0xab, 0x87, 0xdb, 0xbe, 0x02, 0xef, 0x2f, 0xbf,
  0x5e, 0xe8, 0xdd, 0xbd, 0xee, 0xfa, 0xe2, 0xbd, 0x97, 0x1f, 0x94, 0xbe,
  0x81, 0x4c, 0x82, 0xbe, 0x23, 0x01, 0x77, 0x3b, 0x4a, 0x0b, 0x11, 0xbe,
  0xb5, 0x05, 0x84, 0xbe, 0xfd, 0x56, 0xce, 0xbc, 0x6a, 0x0e, 0x0a, 0xbe,
  0xf1, 0x0e, 0x35, 0xbe, 0x42, 0x15, 0xde, 0xbe, 0x39, 0x01, 0xd1, 0xbd,
  0xd8, 0x09, 0xac, 0xbd, 0xc1, 0xc0, 0x97, 0xbe, 0x0a, 0xdd, 0x5d, 0x3b,
  0x1b, 0x1d, 0x19, 0xbd, 0xf0, 0x8a, 0xb8, 0xbc, 0x36, 0x11, 0xde, 0xbe,
  0x2a, 0xe8, 0x6e, 0xbb, 0x83, 0x0f, 0xc3, 0xbc, 0x94, 0x39, 0x72, 0x3c,
  0xf6, 0xfa, 0x63, 0xbe, 0xe4, 0xb0, 0xb4, 0xbe, 0x0d, 0x55, 0xde, 0xbd,
  0xbb, 0x9b, 0xa4, 0x3d, 0xec, 0xd0, 0x21, 0xbe, 0xbe, 0x15, 0x71, 0xbe,
  0x55, 0x77, 0x03, 0xbe, 0xf7, 0x34, 0xbd, 0x3d, 0xf0, 0x5e, 0x02, 0xbe,
  0xbe, 0xc2, 0xd9, 0xbd, 0xe5, 0x49, 0xab, 0xbd, 0xde, 0xb7, 0xd1, 0x3d,
  0xda, 0x59, 0x85, 0xbe, 0xb6, 0x79, 0x09, 0xbf, 0x22, 0x54, 0x51, 0xbe,
  0xc4, 0x76, 0x1e, 0x3e, 0x5a, 0x79, 0x4a, 0xbd, 0x69, 0x98, 0xbe, 0xbe,
  0xea, 0xa7, 0x4e, 0xbe, 0x69, 0xc1, 0x9e, 0xbe, 0xc9, 0x21, 0x6d, 0xbd,
  0xf6, 0xdd, 0x89, 0xbe, 0x43, 0x5f, 0x0d, 0xbc, 0x80, 0xcf, 0xe6, 0xba,
  0xc9, 0x63, 0x24, 0xbd, 0x6d, 0xa0, 0x08, 0x3f, 0x03, 0x6f, 0xc1, 0xbe,
  0xe4, 0x61, 0xa0, 0xbd, 0xa2, 0xd1, 0xeb, 0xbc, 0x4b, 0x78, 0xc6, 0xbe,
  0xdd, 0xce, 0x56, 0x3e, 0x67, 0xfc, 0xfe, 0x39, 0x9a, 0x58, 0x39, 0xbd,
  0x4e, 0x74, 0xef, 0xbe, 0xae, 0x5a, 0x3a, 0xbe, 0x35, 0x6f, 0x24, 0x3e,
  0x38, 0x2a, 0x2d, 0xbc, 0xb3, 0xfa, 0xe7, 0xbd, 0x57, 0xbf, 0x96, 0xbc,
  0xfd, 0x13, 0xac, 0x3d, 0x56, 0x72, 0xf5, 0xbc, 0xa9, 0x49, 0x8e, 0xbe,
  0x1e, 0xa6, 0x12, 0x3e, 0xd3, 0x37, 0xe1, 0x3e, 0x62, 0xd3, 0x4a, 0x3d,
  0x93, 0x6a, 0x79, 0x3e, 0xf0, 0xec, 0x54, 0xbe, 0x9e, 0x45, 0xd5, 0xbd,
  0xac, 0xae, 0x99, 0x3d, 0xa2, 0x71, 0xd5, 0x3e, 0xe2, 0x1b, 0x03, 0x3e,
  0x32, 0x67, 0xec, 0xbe, 0xa7, 0x90, 0x72, 0xbc, 0x70, 0x0a, 0x35, 0xbe,
  0xa2, 0x6c, 0x00, 0xbe, 0xeb, 0x2c, 0x2b, 0xbe, 0xd2, 0xe1, 0x80, 0xbd,
  0xce, 0x20, 0x65, 0xbd, 0x09, 0x94, 0x60, 0xbd, 0xe7, 0x19, 0x69, 0x3e,
  0x8c, 0x9f, 0xbf, 0xbd, 0x4c, 0x9a, 0xa8, 0xbe, 0x0e, 0x12, 0xf9, 0xbd,
  0xaa, 0xaa, 0xf6, 0xbb, 0x7d, 0xbd, 0xac, 0xbc, 0xf8, 0x0c, 0xa1, 0xbe,
  0xae, 0x11, 0x95, 0x3d, 0xda, 0xd4, 0x9e, 0xbe, 0xf9, 0x87, 0x8f, 0xbd,
  0xb2, 0xd2, 0x32, 0xbf, 0xa4, 0x5e, 0x3d, 0x3b, 0x3f, 0xf4, 0x11, 0xbe,
  0x70, 0xc3, 0x4f, 0xbc, 0xa4, 0x0c, 0x5b, 0xbe, 0xb8, 0xa5, 0x60, 0x3c,
  0x0c, 0x2d, 0xe1, 0xbd, 0x32, 0x23, 0x6c, 0xbd, 0x09, 0x3d, 0x43, 0x3d,
  0x14, 0xce, 0x79, 0xbd, 0x87, 0x58, 0x0d, 0xbd, 0x37, 0xa7, 0x15, 0xbe,
  0x62, 0xd9, 0x6c, 0x3e, 0x3f, 0xad, 0x1b, 0xbe, 0x50, 0x9e, 0xa5, 0x3e,
  0x9b, 0x31, 0x05, 0x3f, 0xc2, 0x4b, 0xd9, 0x3d, 0x06, 0x88, 0x85, 0xbe,
  0x1f, 0x9c, 0x96, 0xbd, 0x31, 0x03, 0x4d, 0xbe, 0x23, 0x46, 0x83, 0xbc,
  0x2b, 0x22, 0x8b, 0xbe, 0x8d, 0x75, 0xe6, 0x3d, 0xf2, 0x12, 0x0a, 0xbe,
  0xaa, 0xbd, 0xe1, 0x3e, 0xd9, 0x2f, 0x51, 0x3c, 0x8a, 0xb6, 0x04, 0xbd,
  0xdc, 0x16, 0x20, 0xbe, 0xbf, 0x09, 0x3a, 0x3c, 0x49, 0xea, 0x98, 0xbe,
  0x40, 0x68, 0xaf, 0xba, 0x52, 0xf6, 0x40, 0xbe, 0x5b, 0x17, 0x19, 0x3f,
  0x49, 0x92, 0x5d, 0x3c, 0x39, 0x50, 0xe9, 0x3c, 0xfa, 0xd1, 0x0c, 0xbd,
  0x44, 0x0d, 0xfa, 0x3d, 0xb9, 0x79, 0x5f, 0xbe, 0xd2, 0x5d, 0x5f, 0x3d,
  0xcd, 0x88, 0x3a, 0xbe, 0x48, 0xb4, 0x72, 0xbf, 0xad, 0x04, 0x63, 0x3e,
  0x19, 0xca, 0xe1, 0xb9, 0x31, 0xd1, 0x6a, 0xbd, 0x20, 0xa6, 0x64, 0xbf,
  0xf2, 0x1f, 0xb4, 0xbe, 0x9f, 0x6f, 0xef, 0xbd, 0x7e, 0xd0, 0xd8, 0x3d,
  0xf9, 0xdc, 0x7c, 0xbf, 0x2c, 0xe3, 0xa3, 0xbd, 0x34, 0x4b, 0x46, 0xbc,
  0x18, 0x84, 0xc1, 0xbc, 0x91, 0xaa, 0xec, 0xbe, 0x24, 0x19, 0x05, 0x3d,
  0x21, 0x73, 0x9a, 0x3e, 0xf7, 0xc3, 0x0b, 0xbd, 0x2c, 0xf4, 0x01, 0xbf,
  0xf4, 0xb5, 0x1f, 0x3d, 0x6c, 0x56, 0xa1, 0x3e, 0xe8, 0xc8, 0xef, 0xbc,
  0x88, 0xb9, 0xa6, 0xbe, 0xab, 0x81, 0xaa, 0xbd, 0x33, 0xed, 0x2c, 0xbe,
  0x18, 0x7d, 0x87, 0xbb, 0x61, 0x31, 0xc8, 0xbe, 0xb4, 0xe2, 0xe4, 0x3c,
  0xc3, 0x06, 0x4a, 0xbd, 0x74, 0x68, 0xb9, 0xbc, 0x7a, 0x8a, 0x86, 0xbe,
  0x96, 0x88, 0xe6, 0xbd, 0xde, 0x11, 0x1c, 0xbe, 0x6d, 0xa2, 0x62, 0xbd,
  0xc6, 0xde, 0xff, 0xff, 0x10, 0x00, 0x00, 0x00, 0x08, 0x00, 0x00, 0x00,
  0x1c, 0x00, 0x00, 0x00, 0x38, 0x00, 0x00, 0x00, 0x04, 0x00, 0x00, 0x00,
  0x10, 0x00, 0x00, 0x00, 0x04, 0x00, 0x00, 0x00, 0x01, 0x00, 0x00, 0x00,
  0x08, 0x00, 0x00, 0x00, 0x1a, 0x00, 0x00, 0x00, 0x73, 0x65, 0x71, 0x75,
  0x65, 0x6e, 0x74, 0x69, 0x61, 0x6c, 0x2f, 0x63, 0x6f, 0x6e, 0x76, 0x32,
  0x64, 0x5f, 0x31, 0x2f, 0x43, 0x6f, 0x6e, 0x76, 0x32, 0x44, 0x00, 0x00,
  0xc0, 0xde, 0xff, 0xff, 0xb6, 0xdf, 0xff, 0xff, 0x04, 0x00, 0x00, 0x00,
  0x80, 0x01, 0x00, 0x00, 0x18, 0xb5, 0xc3, 0x3e, 0x8b, 0x9a, 0xbd, 0xbe,
  0xc1, 0xcc, 0x90, 0x3d, 0x2a, 0xd0, 0xc3, 0xbd, 0xc5, 0x55, 0x2b, 0xbe,
  0x17, 0x0f, 0xb5, 0x3d, 0xc0, 0x58, 0x5c, 0xbd, 0xa6, 0x70, 0x1a, 0x3e,
  0x72, 0xf5, 0x19, 0xbe, 0x92, 0x09, 0x91, 0xbe, 0xa9, 0xb8, 0xc0, 0x3e,
  0x4f, 0xbf, 0x0e, 0xbd, 0xe5, 0xea, 0x6d, 0xbc, 0xf1, 0xd2, 0x78, 0x3d,
  0x9c, 0xe7, 0x9e, 0x3c, 0x1c, 0x74, 0xba, 0x3e, 0x18, 0x08, 0x6c, 0x3e,
  0x6d, 0xf3, 0x90, 0x3e, 0x53, 0x4b, 0xe6, 0x3d, 0x5e, 0xb6, 0x80, 0xbe,
  0xdd, 0xde, 0x13, 0xbe, 0xdb, 0xcf, 0xd6, 0xbe, 0x62, 0xf3, 0x9b, 0xbd,
  0xbe, 0xae, 0x7f, 0xbe, 0xe0, 0x95, 0x98, 0xbc, 0xc1, 0x6d, 0x31, 0x3d,
  0x15, 0xa8, 0xda, 0xbc, 0x66, 0x51, 0x7b, 0xbc, 0x24, 0xc3, 0xfe, 0x3c,
  0x91, 0x8e, 0x7f, 0xbc, 0x0c, 0xe9, 0x47, 0x3c, 0x57, 0xf6, 0x0c, 0x3d,
  0xf4, 0x78, 0xc4, 0xbc, 0x88, 0xe6, 0x09, 0x3d, 0x68, 0x85, 0xb8, 0x3c,
  0x23, 0xc6, 0xef, 0xbc, 0x1e, 0xe9, 0xba, 0xbd, 0x30, 0xfc, 0x96, 0xbd,
  0x5a, 0x0e, 0x2a, 0xbe, 0x5f, 0x20, 0x8c, 0x3e, 0x28, 0x05, 0x4f, 0xbe,
  0x29, 0xea, 0xba, 0xba, 0x95, 0x0c, 0xdb, 0x3e, 0x2b, 0xa5, 0x60, 0x3e,
  0x44, 0x94, 0x2c, 0xbe, 0x07, 0x6a, 0x82, 0x3e, 0x60, 0xba, 0x65, 0x3d,
  0x76, 0xad, 0x02, 0xbd, 0x8d, 0x12, 0xb9, 0xbd, 0x80, 0x24, 0x7c, 0xbd,
  0xc6, 0x99, 0x87, 0xbd, 0xf9, 0x55, 0x2d, 0xbf, 0x39, 0xbf, 0xb5, 0xbe,
  0xd8, 0x6a, 0xa2, 0x3d, 0x3f, 0x8d, 0x6c, 0x3e, 0xd2, 0x24, 0x1a, 0x3e,
  0x2e, 0x6c, 0x11, 0xbe, 0x1b, 0x7d, 0x00, 0x3f, 0x63, 0xbb, 0x70, 0x3e,
  0x20, 0x03, 0x96, 0x3d, 0x48, 0xa1, 0x2a, 0xbe, 0x8a, 0x76, 0x25, 0xbe,
  0xe9, 0xc7, 0x2f, 0x3c, 0x6f, 0xfd, 0x38, 0xbe, 0x0e, 0x55, 0x9b, 0xbc,
  0x78, 0x5a, 0xc9, 0x3c, 0x57, 0xc8, 0x48, 0xbe, 0xad, 0xa0, 0xb7, 0x3d,
  0xe8, 0x34, 0xaa, 0xbd, 0x57, 0x82, 0x10, 0xbe, 0x7c, 0x24, 0xb4, 0xbc,
  0x40, 0xba, 0xb8, 0xbd, 0x9e, 0xb2, 0x04, 0xbf, 0x2e, 0x57, 0x8c, 0x3e,
  0xd1, 0xe3, 0x42, 0x3e, 0x55, 0x31, 0x02, 0x3e, 0xdd, 0x2c, 0xc7, 0xbb,
  0xf6, 0xcc, 0x69, 0x3e, 0x31, 0x4b, 0xc4, 0x3e, 0x83, 0x01, 0xbc, 0xbd,
  0x60, 0x4c, 0x4e, 0xbe, 0x33, 0x38, 0x15, 0x3d, 0x32, 0x91, 0x66, 0xbe,
  0xa3, 0x7a, 0x5b, 0xbe, 0x49, 0xaa, 0x8f, 0xbe, 0x94, 0xd0, 0xeb, 0xbd,
  0x06, 0x8e, 0x02, 0x3e, 0x4b, 0x2a, 0xe7, 0xbd, 0xb8, 0x1b, 0x49, 0xbd,
  0x6d, 0x3e, 0x96, 0xbd, 0x7d, 0x45, 0x46, 0xbe, 0xde, 0xdb, 0x9b, 0x3c,
  0xc5, 0xa8, 0xa4, 0x3d, 0x98, 0xbe, 0x3b, 0x39, 0x88, 0xdd, 0xde, 0xbb,
  0x82, 0x0b, 0x79, 0xbd, 0x9e, 0xe0, 0xff, 0xff, 0x10, 0x00, 0x00, 0x00,
  0x07, 0x00, 0x00, 0x00, 0x1c, 0x00, 0x00, 0x00, 0x38, 0x00, 0x00, 0x00,
  0x04, 0x00, 0x00, 0x00, 0x08, 0x00, 0x00, 0x00, 0x04, 0x00, 0x00, 0x00,
  0x03, 0x00, 0x00, 0x00, 0x01, 0x00, 0x00, 0x00, 0x18, 0x00, 0x00, 0x00,
  0x73, 0x65, 0x71, 0x75, 0x65, 0x6e, 0x74, 0x69, 0x61, 0x6c, 0x2f, 0x63,
  0x6f, 0x6e, 0x76, 0x32, 0x64, 0x2f, 0x43, 0x6f, 0x6e, 0x76, 0x32, 0x44,
  0x00, 0x00, 0x00, 0x00, 0x98, 0xe0, 0xff, 0xff, 0x8e, 0xe1, 0xff, 0xff,
  0x04, 0x00, 0x00, 0x00, 0x00, 0x01, 0x00, 0x00, 0x34, 0xf8, 0xc4, 0x3e,
  0x24, 0x98, 0x1d, 0x3e, 0x08, 0x91, 0xfc, 0x3e, 0xb6, 0x83, 0x0c, 0x3f,
  0x4e, 0xd8, 0xcf, 0x3e, 0x05, 0xbf, 0x1a, 0xbd, 0x48, 0x34, 0xe7, 0x3e,
  0xb8, 0xe0, 0x95, 0x3e, 0x6b, 0x39, 0x83, 0x3e, 0x9e, 0x33, 0x44, 0x3e,
  0x4b, 0xf8, 0x95, 0xbe, 0x21, 0x4f, 0xc1, 0x3e, 0xfd, 0x86, 0x32, 0xbf,
  0x31, 0x9c, 0x6b, 0x3e, 0x12, 0xbe, 0x86, 0xbb, 0x3b, 0x3d, 0xf7, 0xbc,
  0x68, 0x46, 0xa9, 0x3e, 0x3b, 0xf0, 0x30, 0x3e, 0xcb, 0x21, 0xfd, 0x3e,
  0x38, 0x9f, 0xb9, 0xbe, 0x3c, 0x12, 0xdf, 0x3e, 0x94, 0xf1, 0x18, 0xbd,
  0xc8, 0x2c, 0x85, 0x3d, 0x8f, 0x65, 0x9b, 0x3e, 0x06, 0x07, 0x5d, 0x3e,
  0xc6, 0x81, 0x51, 0x3e, 0x95, 0x1c, 0x87, 0xbe, 0x25, 0xad, 0xc6, 0x3e,
  0x06, 0xad, 0xbe, 0xbd, 0x22, 0xf0, 0xc8, 0xbe, 0xfd, 0xe8, 0x6f, 0xbf,
  0x8e, 0xbb, 0xe5, 0xbd, 0xf7, 0x9a, 0xa5, 0x3d, 0x78, 0xd5, 0x69, 0x3e,
  0x1c, 0xb9, 0xc5, 0x3e, 0xcd, 0x73, 0x1a, 0x3d, 0x61, 0x40, 0x9c, 0x3e,
  0x8c, 0xa6, 0xab, 0x3c, 0x68, 0x04, 0x7d, 0xbe, 0x36, 0x6b, 0x1d, 0x3d,
  0xd7, 0xdc, 0x02, 0x3e, 0x91, 0x71, 0x28, 0x3e, 0xd0, 0xed, 0xa8, 0xbe,
  0x75, 0xbc, 0xba, 0xbd, 0x42, 0xda, 0x3b, 0x3e, 0x8b, 0x9a, 0x0b, 0x3e,
  0x84, 0x60, 0x1c, 0xbf, 0xf7, 0xee, 0xc3, 0xbd, 0x29, 0x4c, 0xc7, 0x3e,
  0x9d, 0x76, 0xcc, 0x3d, 0xcf, 0x35, 0xd1, 0x3e, 0xb1, 0x2b, 0x3e, 0xbe,
  0xae, 0xf9, 0xd0, 0x3e, 0x40, 0xb1, 0x7b, 0xbd, 0xfa, 0x5f, 0x53, 0xbe,
  0x89, 0x1c, 0xb2, 0x3e, 0x68, 0x78, 0x4f, 0x3e, 0x48, 0x4c, 0x98, 0x3d,
  0xd3, 0xcb, 0xca, 0xbe, 0x59, 0xe6, 0xdb, 0x3e, 0x44, 0xee, 0x85, 0x3e,
  0x72, 0xa2, 0x82, 0xbe, 0xfd, 0x16, 0xa3, 0xbe, 0x0e, 0x0e, 0xb1, 0xbd,
  0xf6, 0xe1, 0xff, 0xff, 0x10, 0x00, 0x00, 0x00, 0x06, 0x00, 0x00, 0x00,
  0x14, 0x00, 0x00, 0x00, 0x30, 0x00, 0x00, 0x00, 0x02, 0x00, 0x00, 0x00,
  0x04, 0x00, 0x00, 0x00, 0x10, 0x00, 0x00, 0x00, 0x19, 0x00, 0x00, 0x00,
  0x73, 0x65, 0x71, 0x75, 0x65, 0x6e, 0x74, 0x69, 0x61, 0x6c, 0x2f, 0x64,
  0x65, 0x6e, 0x73, 0x65, 0x5f, 0x31, 0x2f, 0x4d, 0x61, 0x74, 0x4d, 0x75,
  0x6c, 0x00, 0x00, 0x00, 0xe8, 0xe1, 0xff, 0xff, 0xde, 0xe2, 0xff, 0xff,
  0x04, 0x00, 0x00, 0x00, 0x00, 0x1c, 0x00, 0x00, 0xc3, 0xd6, 0xfa, 0xbd,
  0x8f, 0xe8, 0x26, 0xbd, 0x88, 0xaa, 0x90, 0x3d, 0x1f, 0x5f, 0xbb, 0x3d,
  0x34, 0x6e, 0xec, 0xbb, 0x03, 0x91, 0x40, 0xbe, 0xcc, 0xb4, 0xeb, 0x3d,
  0x25, 0x0a, 0xf6, 0xbd, 0x58, 0x67, 0x04, 0xbb, 0xb2, 0xab, 0x3b, 0x3c,
  0x13, 0x12, 0x25, 0xbe, 0x08, 0xc6, 0xc3, 0x3e, 0x78, 0x02, 0xcf, 0xbd,
  0x93, 0x14, 0x97, 0xbc, 0xfe, 0xab, 0x86, 0x3d, 0x51, 0xef, 0x9f, 0xbd,
  0xaa, 0x02, 0x83, 0xbd, 0x7f, 0x4c, 0xf5, 0x3c, 0x12, 0x68, 0x69, 0x36,
  0x78, 0x0d, 0xa5, 0xbd, 0x7d, 0x15, 0xb0, 0x3c, 0x27, 0xba, 0x2a, 0xbe,
  0xfd, 0xec, 0x1f, 0xbe, 0xdc, 0x8b, 0xbd, 0x3c, 0x80, 0xc5, 0xfb, 0xbd,
  0xc1, 0x0a, 0xd9, 0x3b, 0x1c, 0x35, 0x07, 0xbe, 0xf1, 0xdc, 0x26, 0x3f,
  0xf9, 0x31, 0xa9, 0xbe, 0xf3, 0x3c, 0x6f, 0x3d, 0xb7, 0x30, 0xcf, 0x3c,
  0xab, 0xa2, 0x0b, 0xbe, 0x22, 0x38, 0xb4, 0xbd, 0x4a, 0xec, 0xfa, 0x3c,
  0xf8, 0xc8, 0x8f, 0x3d, 0xcc, 0xc9, 0x4c, 0x3e, 0xd7, 0x91, 0xe4, 0x3d,
  0xbd, 0x8a, 0x14, 0x3d, 0x34, 0x90, 0x76, 0xbd, 0xf0, 0xc9, 0x13, 0x3e,
  0x13, 0x84, 0xa9, 0xbe, 0xf1, 0xe5, 0x19, 0x3c, 0x7f, 0xab, 0xad, 0xbd,
  0xd9, 0x0f, 0xc9, 0x3e, 0x57, 0x7e, 0x3a, 0xbe, 0xb0, 0x5a, 0x9a, 0xbe,
  0x54, 0x30, 0x7d, 0xbc, 0xca, 0x60, 0x53, 0xbe, 0x04, 0x0c, 0x1d, 0xbc,
  0xd8, 0xce, 0xb1, 0x3d, 0xbd, 0xb9, 0xa8, 0xbc, 0xc4, 0xe7, 0x4c, 0xbc,
  0xb3, 0x87, 0x0e, 0x3e, 0xe3, 0x8e, 0x5a, 0xbc, 0xe7, 0xc6, 0x0a, 0xbd,
  0x7c, 0x7b, 0x2f, 0x3e, 0xbd, 0xd7, 0x1a, 0xbe, 0xb6, 0x0b, 0x6d, 0x3d,
  0x43, 0x86, 0x87, 0xbd, 0x5c, 0x90, 0x1c, 0x3f, 0x0d, 0x36, 0x59, 0xbe,
  0xac, 0x1b, 0x0f, 0xbe, 0x83, 0xca, 0x21, 0xbb, 0x11, 0x7e, 0x77, 0xbe,
  0xd0, 0xfd, 0x4e, 0xbd, 0x86, 0xd4, 0x65, 0x3d, 0x88, 0x9d, 0x33, 0x3c,
  0xaf, 0x28, 0x9d, 0xbc, 0x69, 0xf0, 0x76, 0x3d, 0x52, 0x9b, 0x93, 0xbc,
  0xae, 0x5a, 0x04, 0x3e, 0xc8, 0x41, 0x22, 0x3d, 0xad, 0xcf, 0xdf, 0xbe,
  0x5d, 0x3f, 0x55, 0x3d, 0x3e, 0x9d, 0xa6, 0xbe, 0x46, 0xe0, 0xcb, 0x3e,
  0x61, 0xe2, 0x42, 0xbe, 0x68, 0xb0, 0xe4, 0x3d, 0x79, 0x28, 0xd2, 0x3b,
  0x4c, 0xd8, 0x82, 0xbd, 0x95, 0xbc, 0x13, 0xbe, 0x1b, 0x93, 0xac, 0x3b,
  0x4b, 0x5d, 0xd0, 0x3d, 0xbc, 0x87, 0xd3, 0x3d, 0xf7, 0x6c, 0x19, 0x3d,
  0xa0, 0x3f, 0xde, 0xbc, 0xf2, 0x66, 0x14, 0x3e, 0x40, 0xd4, 0x90, 0x3c,
  0x51, 0x9a, 0x5b, 0xbd, 0x89, 0x90, 0x74, 0xba, 0xa5, 0x4c, 0xb6, 0xbe,
  0xa9, 0x19, 0x83, 0x3e, 0x10, 0x14, 0x58, 0xbe, 0xdb, 0x49, 0x8f, 0xbd,
  0x62, 0x0e, 0x98, 0xbb, 0x52, 0xe7, 0x23, 0xbe, 0xba, 0x80, 0xda, 0xbd,
  0x4f, 0x09, 0x86, 0xbb, 0xfa, 0x3b, 0x62, 0x3b, 0x4a, 0xff, 0x43, 0x3c,
  0x08, 0x4a, 0x69, 0xbb, 0x46, 0xd9, 0xee, 0xbd, 0x21, 0xfa, 0xb9, 0x3d,
  0xa6, 0x2c, 0x43, 0x3b, 0xba, 0x03, 0x37, 0xbd, 0x4c, 0xbf, 0x2a, 0xbc,
  0x6f, 0x54, 0x28, 0xbd, 0x5e, 0xf2, 0xf7, 0x3e, 0x27, 0xa2, 0x3d, 0xbe,
  0x15, 0x77, 0x25, 0xbd, 0x98, 0x29, 0x1a, 0x3c, 0xf9, 0x3b, 0x31, 0xbe,
  0xd8, 0xf0, 0x86, 0xbe, 0xc7, 0xac, 0x43, 0xbd, 0x0f, 0x8e, 0x62, 0xbd,
  0x71, 0xda, 0x11, 0xbe, 0xe6, 0x9e, 0x18, 0x3d, 0x70, 0xc2, 0x4e, 0xbe,
  0xfd, 0x86, 0xa2, 0x3c, 0xa3, 0xd7, 0x9d, 0xbe, 0x5a, 0xf3, 0xa9, 0x3d,
  0x57, 0x18, 0x80, 0xbe, 0x72, 0xb8, 0x8f, 0x3e, 0xc6, 0x0a, 0x25, 0x3e,
  0x0b, 0x72, 0xfc, 0xbd, 0xaf, 0x4c, 0x38, 0x3d, 0xf7, 0x70, 0xa3, 0x3d,
  0xe3, 0xc0, 0x02, 0x3e, 0x79, 0x1f, 0x60, 0x3e, 0x12, 0xbf, 0x66, 0xbe,
  0xed, 0x71, 0x68, 0xbd, 0xa3, 0xf1, 0xbd, 0x3b, 0xee, 0xb4, 0x83, 0x3e,
  0x53, 0x71, 0x43, 0x3d, 0x50, 0xfd, 0x00, 0x3e, 0x90, 0x9c, 0x47, 0x3e,
  0xb0, 0xea, 0xaa, 0x3d, 0x27, 0x9b, 0xac, 0xbe, 0xc0, 0x36, 0x58, 0xba,
  0x29, 0x7c, 0x6d, 0x3e, 0x5c, 0x6c, 0x08, 0xbe, 0x9d, 0x66, 0x98, 0x3d,
  0x15, 0xef, 0x24, 0x3d, 0x0f, 0x8c, 0xa9, 0xbc, 0x12, 0x5a, 0x60, 0xbe,
  0x24, 0xde, 0xbc, 0x3d, 0x01, 0x04, 0x49, 0xbe, 0xfd, 0xaa, 0x3f, 0x3e,
  0xc2, 0xa6, 0xb7, 0xbd, 0xa9, 0xbd, 0x86, 0xbd, 0xab, 0x19, 0x14, 0x3e,
  0xf9, 0x09, 0xc5, 0x3d, 0x17, 0xaf, 0x2b, 0xbe, 0x64, 0x97, 0xa6, 0xbe,
  0x52, 0xe7, 0x97, 0xbd, 0xbb, 0xcc, 0x0a, 0x3e, 0x72, 0x40, 0xd9, 0x3d,
  0x58, 0x5d, 0x7a, 0x3d, 0x29, 0x54, 0xbf, 0xbc, 0x3f, 0x92, 0x8c, 0x3d,
  0xfb, 0x8f, 0xa8, 0xbe, 0x46, 0x5c, 0xf9, 0xbd, 0xc6, 0x4e, 0x12, 0x3d,
  0xbe, 0x83, 0x86, 0x3d, 0xaf, 0x1c, 0x3a, 0xbd, 0xda, 0xb9, 0xcd, 0xbd,
  0xcf, 0x8b, 0x49, 0xbe, 0xb0, 0xd7, 0x22, 0xbe, 0x12, 0x42, 0xfc, 0xbb,
  0xaf, 0x0d, 0xaa, 0xbe, 0x0e, 0x1e, 0x14, 0x3e, 0xdb, 0x40, 0x8e, 0x3e,
  0xf5, 0xf7, 0xb6, 0x3d, 0x7d, 0xa2, 0x7c, 0xbd, 0x32, 0x63, 0xe3, 0x3c,
  0x4e, 0xdb, 0x10, 0x3e, 0xbe, 0xfa, 0xd6, 0x3d, 0x7e, 0x37, 0x49, 0xbe,
  0xf5, 0x32, 0x7e, 0xbe, 0xd6, 0xdb, 0x29, 0x3d, 0x9f, 0x0f, 0xd6, 0xbd,
  0x8f, 0x51, 0x4a, 0xbd, 0xb1, 0xf5, 0xe6, 0xbd, 0xc2, 0x1c, 0xc8, 0xbc,
  0x53, 0x64, 0x26, 0x3d, 0x48, 0xaf, 0xfd, 0xbd, 0xd9, 0x83, 0x11, 0xbd,
  0xd7, 0xfe, 0x41, 0x3e, 0xdc, 0x27, 0xe9, 0xbc, 0xf2, 0xa0, 0xcc, 0x3d,
  0x05, 0xcb, 0x96, 0x3d, 0x65, 0x6f, 0xfe, 0xbd, 0x2d, 0x1e, 0x24, 0xbe,
  0xdc, 0x2f, 0x8a, 0xbe, 0x78, 0xf3, 0x84, 0xbe, 0x15, 0xe3, 0x5b, 0x3e,
  0xde, 0xae, 0x9c, 0xbd, 0x1c, 0x19, 0xa1, 0xbd, 0xdc, 0x85, 0x32, 0x3b,
  0x4f, 0xae, 0x44, 0xbe, 0xac, 0xef, 0x46, 0xbe, 0xef, 0xcd, 0x23, 0xbe,
  0xa7, 0xdd, 0xa2, 0xbe, 0xac, 0xdf, 0xc7, 0x3e, 0x14, 0x8c, 0xfd, 0x3d,
  0xa5, 0x92, 0x1e, 0x3e, 0x2c, 0xe9, 0x25, 0x3e, 0x38, 0x8f, 0x60, 0xbe,
  0xf5, 0x7e, 0xd4, 0x3d, 0x7b, 0xd9, 0x75, 0x3d, 0x50, 0xfb, 0x86, 0x3e,
  0x86, 0xa5, 0x0c, 0x3e, 0x43, 0x71, 0x06, 0x3d, 0x32, 0x99, 0xbd, 0x3d,
  0xa2, 0x27, 0xcb, 0xbd, 0xd8, 0xea, 0x20, 0xbd, 0x09, 0xb2, 0x78, 0x3d,
  0xf9, 0x3f, 0xd0, 0xbe, 0xe1, 0x94, 0xae, 0xbe, 0x6e, 0x53, 0xd7, 0x3c,
  0x16, 0xc1, 0x5c, 0xbd, 0xb3, 0x7b, 0xa9, 0xbc, 0x4a, 0xea, 0x28, 0xbb,
  0x70, 0x27, 0x66, 0xbe, 0xa6, 0xb6, 0x20, 0xbd, 0xbf, 0xd8, 0xc9, 0xbe,
  0x51, 0xe6, 0xe8, 0xbd, 0xef, 0x01, 0xe7, 0xbc, 0x5e, 0xcf, 0xdd, 0x3c,
  0xb1, 0xac, 0xb8, 0xbe, 0x85, 0xb2, 0x32, 0x3d, 0xc8, 0x46, 0x00, 0x3d,
  0x35, 0x1f, 0xf3, 0xbe, 0x96, 0x2e, 0x05, 0xbc, 0x29, 0x95, 0x7b, 0xbe,
  0xc6, 0x29, 0xf5, 0x3c, 0x99, 0x5c, 0xdd, 0xbe, 0x65, 0xa7, 0x8f, 0xbe,
  0x3c, 0x5b, 0xe9, 0xbd, 0xe7, 0x04, 0xaf, 0xbe, 0x75, 0x2b, 0xba, 0xbd,
  0x6e, 0xeb, 0x4c, 0xbe, 0xe1, 0x32, 0x3d, 0xbe, 0xeb, 0x3d, 0x7e, 0xbe,
  0x3b, 0x12, 0x9a, 0x3e, 0x12, 0xa0, 0x38, 0xbb, 0x85, 0x64, 0xff, 0xbc,
  0x52, 0xc3, 0x8c, 0x3d, 0x6b, 0xf2, 0x12, 0xbe, 0xbe, 0x60, 0x9b, 0xbc,
  0x40, 0x60, 0xa8, 0xbe, 0xc5, 0xd4, 0x4f, 0xbd, 0xd4, 0xaa, 0xd8, 0xbe,
  0x8f, 0xd7, 0x07, 0xbb, 0x8e, 0x1a, 0x94, 0x3d, 0x6a, 0x95, 0xd2, 0xbe,
  0x2b, 0x9a, 0x0a, 0xbe, 0x59, 0x71, 0xa3, 0xbe, 0xc9, 0x10, 0xc8, 0xbe,
  0xe3, 0xf0, 0xc7, 0xbd, 0x8c, 0x2f, 0x83, 0x3e, 0xe9, 0x08, 0x91, 0x3c,
  0x9b, 0x48, 0x0b, 0xbe, 0x7a, 0x87, 0x01, 0x3e, 0x40, 0x82, 0x35, 0xbd,
  0xea, 0xb7, 0xc7, 0xbb, 0xf1, 0x31, 0x80, 0xbe, 0x13, 0xe3, 0x3f, 0x3d,
  0xf7, 0x87, 0xe6, 0xbe, 0xc4, 0xb0, 0x71, 0xbe, 0xf5, 0x50, 0xaa, 0x3d,
  0x6e, 0x9a, 0x16, 0xbe, 0x20, 0x9e, 0xc8, 0xbc, 0xfa, 0xfc, 0x4a, 0xbf,
  0xde, 0x66, 0x33, 0xbf, 0x64, 0x93, 0x6b, 0xbe, 0x5d, 0x8f, 0x11, 0x3d,
  0xa9, 0x0e, 0x00, 0xbd, 0xcc, 0x78, 0xc8, 0xbc, 0xe8, 0x8f, 0x19, 0x3e,
  0x0e, 0x99, 0x49, 0xbe, 0xb1, 0xc5, 0x96, 0x3b, 0x9e, 0x79, 0x9a, 0xbe,
  0x09, 0x26, 0x91, 0xbc, 0x1b, 0x6b, 0xc1, 0xbe, 0xe2, 0x83, 0x22, 0xbe,
  0x23, 0x88, 0xc3, 0x3c, 0x4f, 0x73, 0xbe, 0xbd, 0xa6, 0x59, 0x04, 0xbe,
  0x22, 0x76, 0x92, 0xbe, 0x7c, 0xb6, 0x8b, 0xbe, 0x50, 0xe4, 0x85, 0xbe,
  0x77, 0xa0, 0xf2, 0x3d, 0x45, 0x6c, 0x6b, 0x3d, 0x43, 0xf3, 0xae, 0xba,
  0x48, 0xd7, 0xb9, 0xbd, 0xaf, 0xd1, 0x1a, 0x3e, 0x8d, 0x82, 0x30, 0xbd,
  0x95, 0x59, 0xc9, 0xbe, 0x45, 0xf2, 0x83, 0x3c, 0x7e, 0xca, 0xa4, 0xbe,
  0xb4, 0x11, 0xc6, 0xbd, 0x8e, 0x10, 0xf5, 0x3d, 0x65, 0x88, 0xd8, 0xbd,
  0xe4, 0x91, 0xe6, 0xbd, 0x2d, 0x3d, 0xd3, 0x3d, 0x28, 0x82, 0x14, 0xbe,
  0x5c, 0x6a, 0xcf, 0xbe, 0x24, 0xc3, 0x79, 0x3d, 0x2e, 0x2a, 0xe8, 0x3d,
  0xa2, 0x6b, 0x98, 0xbe, 0x7c, 0xd9, 0xf4, 0x3d, 0x4c, 0xcf, 0x4a, 0x3e,
  0xdc, 0x45, 0x67, 0xbd, 0x70, 0x39, 0xa0, 0xbe, 0x10, 0x73, 0x71, 0xbd,
  0xd0, 0x48, 0x4a, 0xbd, 0x61, 0x33, 0x76, 0xbe, 0xce, 0x64, 0x0e, 0xbc,
  0xc0, 0x03, 0xb2, 0xbe, 0x54, 0xad, 0x65, 0x3a, 0x97, 0x4b, 0xc5, 0x3d,
  0xab, 0x11, 0x0b, 0xbe, 0xbd, 0xe0, 0x6e, 0xbe, 0x3e, 0xfb, 0x36, 0x3d,
  0x58, 0xf2, 0x32, 0xbd, 0x60, 0x8d, 0x09, 0xbe, 0x9f, 0x9f, 0x0a, 0x3e,
  0x7b, 0x4e, 0xd0, 0x3d, 0xff, 0x26, 0x34, 0x3d, 0xe6, 0xa9, 0xba, 0xbd,
  0xda, 0x83, 0xa8, 0xbd, 0xd1, 0x9f, 0x8c, 0xbd, 0x04, 0x8c, 0x33, 0x3d,
  0x52, 0x64, 0xdf, 0xbd, 0x26, 0x18, 0xcd, 0xbd, 0xf8, 0x55, 0x8d, 0xbe,
  0x9a, 0x6e, 0xa1, 0xbd, 0x27, 0x9d, 0xf9, 0xbd, 0x88, 0xbd, 0x34, 0xbd,
  0xa7, 0x5e, 0xc9, 0xbd, 0x5b, 0x44, 0x6e, 0xbd, 0x76, 0xe1, 0x8b, 0xbe,
  0x88, 0x5a, 0xba, 0xbd, 0x4e, 0xed, 0x02, 0xbe, 0xfe, 0xbc, 0x84, 0xbe,
  0xfc, 0x70, 0xd4, 0xbd, 0x03, 0x01, 0xbf, 0x3e, 0x45, 0x0a, 0x8a, 0xbe,
  0xb8, 0xa8, 0xc1, 0x3c, 0x57, 0xdf, 0x8a, 0xbd, 0x61, 0x87, 0x23, 0xbd,
  0x70, 0x2f, 0x73, 0x3c, 0x07, 0xf9, 0x2e, 0xbe, 0x20, 0xef, 0xda, 0x3c,
  0xf7, 0xb3, 0x6b, 0x3e, 0x72, 0x6e, 0xea, 0xbc, 0xf9, 0xdc, 0x74, 0xbd,
  0x53, 0x5e, 0x3a, 0x3d, 0x08, 0x43, 0x72, 0x3d, 0x8f, 0x92, 0xb1, 0xbd,
  0x75, 0x67, 0x66, 0xbe, 0xa4, 0x9e, 0xd2, 0x3c, 0xa5, 0xd0, 0xb5, 0x3e,
  0x67, 0x78, 0xa3, 0xbc, 0x0c, 0xaa, 0x4f, 0x3e, 0x76, 0x42, 0x36, 0x3a,
  0x3a, 0x80, 0x91, 0xbe, 0xee, 0x00, 0x44, 0xbe, 0xa4, 0x3b, 0x8c, 0x3d,
  0xbc, 0xcc, 0x24, 0x3e, 0x6b, 0x98, 0x17, 0x3e, 0x45, 0x43, 0x48, 0xbe,
  0xed, 0xfd, 0x1c, 0x3e, 0x6e, 0xa1, 0xe4, 0xbc, 0x04, 0x0a, 0x21, 0xbe,
  0xbf, 0xba, 0x0e, 0xbe, 0xc9, 0xa4, 0x94, 0xbe, 0xdb, 0x99, 0x96, 0x3d,
  0xaf, 0xba, 0xda, 0x3e, 0xd9, 0x33, 0xe5, 0xbd, 0x1e, 0x20, 0xc2, 0xbd,
  0x3f, 0x83, 0x87, 0xbd, 0xb8, 0xb5, 0x1d, 0xbe, 0x8d, 0xa9, 0xb2, 0x3d,
  0x07, 0x2f, 0x92, 0xbc, 0x7a, 0x44, 0xf7, 0xbc, 0xb7, 0xbb, 0x41, 0x3e,
  0x3c, 0x2f, 0xff, 0xbd, 0x35, 0xd2, 0x52, 0xbe, 0xf7, 0x95, 0x6c, 0xbd,
  0xc9, 0x18, 0xf3, 0xbc, 0xbd, 0xae, 0x5c, 0xbd, 0xe7, 0x07, 0x13, 0xbe,
  0x28, 0x58, 0x08, 0x3e, 0x42, 0x89, 0x73, 0x3e, 0xc2, 0x99, 0xb0, 0xbd,
  0x18, 0xdd, 0x4e, 0xbd, 0x51, 0x86, 0x31, 0xbe, 0xd8, 0x78, 0xee, 0xbd,
  0x85, 0x6f, 0x23, 0xbe, 0x13, 0xfe, 0x5c, 0xbe, 0xe6, 0xa9, 0x94, 0xbb,
  0x03, 0x96, 0x60, 0x3e, 0x55, 0x28, 0xf3, 0xbb, 0xe3, 0xad, 0x53, 0xbd,
  0x4e, 0x84, 0x9d, 0x3d, 0x38, 0xde, 0xb1, 0xbd, 0x2e, 0xee, 0x3d, 0xbd,
  0x3f, 0x59, 0xe1, 0xbe, 0xa4, 0x62, 0xde, 0x3d, 0x7c, 0xbd, 0xe3, 0x3e,
  0x38, 0xdb, 0x84, 0xbe, 0x55, 0x9f, 0x2d, 0xbd, 0xca, 0x49, 0xa6, 0xbc,
  0xf1, 0x7d, 0x38, 0xbe, 0x80, 0x47, 0xaf, 0xbd, 0xfa, 0x2e, 0x99, 0xbc,
  0xaa, 0x88, 0x0d, 0xbd, 0x6d, 0xf0, 0x19, 0x3c, 0x3e, 0xac, 0x83, 0x3d,
  0x2d, 0xb1, 0xa4, 0xbd, 0xc0, 0x64, 0xa5, 0x3d, 0x15, 0x5d, 0x3e, 0xbd,
  0xd6, 0x0c, 0xd3, 0x3c, 0x57, 0x8f, 0x96, 0xbe, 0xb2, 0x1c, 0x35, 0x3e,
  0x2d, 0xf9, 0xd8, 0x3e, 0xef, 0x7f, 0x95, 0xbe, 0x04, 0xa6, 0x0e, 0x3d,
  0xfa, 0x26, 0x40, 0xbe, 0x93, 0x8b, 0xb5, 0xbe, 0xe0, 0xe0, 0x11, 0xbe,
  0xfe, 0x8b, 0x33, 0xbe, 0x5d, 0x54, 0xe8, 0xbd, 0x1f, 0xc5, 0x85, 0x3e,
  0x83, 0x2c, 0x31, 0xbe, 0xda, 0x2c, 0x6a, 0x3d, 0x41, 0x55, 0x38, 0xbd,
  0x99, 0xcc, 0xf7, 0xbd, 0x84, 0xdd, 0x6a, 0x3d, 0x0e, 0x89, 0xd2, 0xbe,
  0x5d, 0x23, 0x6b, 0xbe, 0xf1, 0x85, 0x9e, 0x3e, 0xf0, 0xee, 0x60, 0xbd,
  0x75, 0x0f, 0x41, 0xbe, 0xe6, 0xdf, 0x84, 0xbe, 0xc8, 0x07, 0x96, 0xbe,
  0x8b, 0xcd, 0x12, 0x3e, 0x40, 0x06, 0x44, 0x3e, 0x0f, 0x00, 0x04, 0x3e,
  0x32, 0x45, 0x1f, 0xbd, 0x33, 0x2c, 0xb8, 0xbc, 0x4b, 0xd2, 0xa7, 0x3e,
  0x73, 0xdf, 0x98, 0xbe, 0x8d, 0x40, 0x14, 0x3e, 0x7b, 0x3a, 0x86, 0x3e,
  0xd2, 0x91, 0x80, 0x3d, 0xed, 0xc6, 0x2e, 0x3e, 0x32, 0xd1, 0x7b, 0xbd,
  0xa2, 0xa6, 0x94, 0x3e, 0xeb, 0x2d, 0x06, 0x3e, 0x54, 0x24, 0x62, 0xbe,
  0x82, 0xad, 0x42, 0x3e, 0x15, 0x97, 0xe7, 0xbd, 0x18, 0x26, 0x7b, 0xbd,
  0xb1, 0xf8, 0x63, 0xbd, 0x68, 0x3d, 0x36, 0x3e, 0x6f, 0x64, 0x45, 0x3d,
  0x92, 0x4d, 0x6a, 0x3e, 0xe2, 0x21, 0xc7, 0xbd, 0xa5, 0x0d, 0xa7, 0x3d,
  0x3b, 0xcb, 0xb6, 0xbe, 0xf4, 0xb7, 0xcc, 0x3d, 0xce, 0xf6, 0xc9, 0x3d,
  0x06, 0xb4, 0x40, 0x3e, 0xf0, 0x59, 0xe9, 0xbc, 0x80, 0xc6, 0x87, 0x3e,
  0xe0, 0xb0, 0x6b, 0xbe, 0x82, 0x5d, 0x82, 0x3b, 0xaa, 0x69, 0x9f, 0xbd,
  0x5b, 0x5b, 0x6f, 0xbe, 0xcf, 0x06, 0x32, 0xbd, 0xd6, 0x26, 0x7e, 0x3e,
  0xfa, 0x2f, 0x05, 0xbe, 0x9c, 0x50, 0x29, 0x3e, 0x76, 0x5e, 0xce, 0xbd,
  0x98, 0xd6, 0x85, 0xbe, 0x41, 0x70, 0xd4, 0xbd, 0x51, 0xf4, 0xc8, 0xbb,
  0xa8, 0x6b, 0x80, 0x3d, 0x4a, 0xa3, 0xb8, 0xbc, 0x58, 0x83, 0xe7, 0xbb,
  0xef, 0x58, 0xad, 0xbb, 0xac, 0x95, 0xab, 0xbd, 0x78, 0x22, 0x68, 0xbd,
  0xfb, 0x86, 0x80, 0xbd, 0x4b, 0x8e, 0x00, 0xbe, 0x0f, 0x00, 0xb7, 0xbd,
  0x1c, 0xd3, 0x50, 0x3a, 0x82, 0xbd, 0xc3, 0xbd, 0x74, 0x81, 0x71, 0xbd,
  0x1c, 0x51, 0xd0, 0xbd, 0xaf, 0xc8, 0x92, 0xbe, 0x72, 0x89, 0xdd, 0xbc,
  0x43, 0x8f, 0x14, 0xbc, 0xb9, 0xfa, 0xf1, 0x3d, 0x39, 0x14, 0x7d, 0xbe,
  0xa5, 0x2e, 0x9f, 0xbd, 0x7c, 0xaa, 0x87, 0x3d, 0xa8, 0xbd, 0xc1, 0xbb,
  0x20, 0x3d, 0x92, 0xbd, 0xab, 0x2b, 0x24, 0x3c, 0x4c, 0x26, 0x74, 0x3d,
  0x76, 0x23, 0x33, 0x3d, 0xdc, 0xc9, 0x25, 0x3e, 0xca, 0x72, 0xad, 0xb9,
  0xef, 0x04, 0x6f, 0x3e, 0x47, 0x73, 0xb3, 0xbd, 0x98, 0x83, 0x7c, 0x3d,
  0x29, 0xe1, 0xb2, 0x3e, 0x8e, 0xd3, 0x9c, 0xbc, 0x46, 0xe3, 0xb3, 0x3d,
  0xaf, 0x5e, 0x3d, 0xbd, 0x05, 0x18, 0x6e, 0xbd, 0x11, 0x2f, 0x9d, 0xbd,
  0x91, 0xe6, 0x41, 0xbd, 0x85, 0xe3, 0xf1, 0xbc, 0x00, 0xc9, 0x39, 0x3d,
  0x1e, 0x30, 0x59, 0x3e, 0xe1, 0x8c, 0xa3, 0x3c, 0xfd, 0x32, 0x15, 0x3e,
  0xbf, 0x2f, 0xb8, 0x3c, 0x98, 0x83, 0xe7, 0x3e, 0x9b, 0x12, 0x7f, 0xbe,
  0x81, 0x05, 0xca, 0x3d, 0xbe, 0x55, 0xbc, 0x3e, 0x51, 0xc5, 0xe3, 0xbb,
  0x12, 0xb5, 0xbb, 0x3e, 0xc7, 0x61, 0x9a, 0xbe, 0xe1, 0xb3, 0x0b, 0xbc,
  0x35, 0xf9, 0xda, 0x3d, 0xe8, 0x31, 0x8a, 0xbe, 0x04, 0x5f, 0xe0, 0x3d,
  0xab, 0xf0, 0x5e, 0x3d, 0xa8, 0xb8, 0x2b, 0x3e, 0x58, 0x8c, 0xb8, 0x3b,
  0xc3, 0xde, 0x82, 0x3e, 0x89, 0x4a, 0x3d, 0xbd, 0xb3, 0x74, 0x5d, 0xbc,
  0x6f, 0x02, 0xe9, 0xbd, 0xbd, 0x30, 0x4c, 0x3c, 0xc2, 0x9d, 0x68, 0x3e,
  0xd6, 0xc4, 0xfd, 0xbc, 0xff, 0x63, 0x24, 0x3e, 0x9a, 0xac, 0x48, 0xbd,
  0xbf, 0x55, 0x3a, 0x3c, 0x76, 0xf6, 0xa6, 0x3d, 0xa3, 0x72, 0xf8, 0xbd,
  0x6a, 0x9b, 0x0f, 0x3e, 0xc0, 0x21, 0x56, 0xbe, 0xfb, 0xc4, 0x98, 0xbd,
  0x47, 0x51, 0xde, 0xbd, 0xd3, 0xab, 0x6d, 0xbe, 0x19, 0xd4, 0x7e, 0x3d,
  0x37, 0x2c, 0x2e, 0xbe, 0x18, 0x30, 0xfb, 0xbd, 0xe5, 0x84, 0x88, 0xbe,
  0x49, 0x47, 0x5d, 0xbe, 0x79, 0x30, 0xf1, 0xbe, 0xb9, 0x09, 0x32, 0xbe,
  0xff, 0x4a, 0x58, 0xbe, 0xf3, 0x95, 0xe8, 0xbe, 0xc7, 0x78, 0x33, 0xbe,
  0xce, 0x50, 0x9c, 0x3e, 0x6d, 0x31, 0xab, 0xbe, 0x25, 0x53, 0xa5, 0x3d,
  0x95, 0x8c, 0x01, 0x3d, 0xe8, 0x62, 0xc0, 0xbb, 0xee, 0x95, 0x3e, 0xbe,
  0x5a, 0x27, 0x1e, 0xbd, 0xb0, 0xf6, 0x63, 0x3e, 0xd2, 0x81, 0x2c, 0x3e,
  0x68, 0xe1, 0x9c, 0xbd, 0x98, 0x79, 0xbd, 0x3d, 0x8b, 0x7d, 0x09, 0xbf,
  0x4a, 0x00, 0xf9, 0x3d, 0x56, 0x2b, 0x67, 0x3e, 0x09, 0x9e, 0x03, 0xbe,
  0x3c, 0xd1, 0x88, 0xbe, 0xe3, 0x7c, 0x7c, 0x3d, 0x91, 0xdb, 0x79, 0xbd,
  0xea, 0xc2, 0xca, 0xbd, 0x88, 0x63, 0x06, 0x3d, 0xd4, 0x61, 0x29, 0xbe,
  0x81, 0x4a, 0x8c, 0xbe, 0x63, 0x58, 0x87, 0xba, 0x68, 0x8a, 0x6b, 0x3e,
  0xfc, 0xd7, 0x0b, 0xbe, 0x53, 0x4a, 0x76, 0x3c, 0x87, 0x3d, 0x07, 0xbd,
  0xec, 0x26, 0xe1, 0xbe, 0x59, 0x84, 0x89, 0xbc, 0x35, 0x63, 0x83, 0x3e,
  0xde, 0x5b, 0x2f, 0x3d, 0x23, 0x52, 0x83, 0x3e, 0x1f, 0x61, 0x05, 0x3b,
  0x8b, 0x38, 0xa0, 0x3d, 0x86, 0x76, 0xfb, 0x3c, 0x1b, 0x4d, 0x0c, 0xbe,
  0xbf, 0x58, 0xf7, 0xbd, 0x4f, 0x99, 0x2e, 0xbd, 0x3a, 0x0a, 0xcc, 0xbd,
  0xe5, 0xee, 0x5d, 0xbe, 0x29, 0x12, 0x4b, 0xbe, 0x35, 0x5e, 0x7e, 0x3c,
  0x02, 0x31, 0x27, 0x3e, 0x8c, 0x9f, 0x97, 0xbe, 0xc2, 0xcf, 0xc6, 0x3c,
  0x6c, 0x14, 0xf2, 0x3e, 0xa8, 0x13, 0x87, 0x3d, 0x8d, 0xfd, 0x83, 0x3d,
  0x1c, 0x8c, 0x23, 0xbe, 0xa5, 0xb4, 0x80, 0x3d, 0x43, 0x76, 0x52, 0x3a,
  0xde, 0x69, 0x3b, 0xbd, 0x1f, 0xc3, 0x27, 0x3d, 0x26, 0x40, 0x87, 0xbe,
  0x7b, 0xce, 0xde, 0xbd, 0xa0, 0x52, 0x9e, 0x3e, 0xaf, 0x54, 0x8c, 0xbe,
  0x1d, 0x76, 0x0d, 0xbe, 0x1f, 0xce, 0x98, 0xbd, 0xab, 0xcb, 0x43, 0xbe,
  0xe5, 0xa6, 0xca, 0x3c, 0xd2, 0xac, 0xfc, 0x3e, 0x22, 0xd5, 0x64, 0x3d,
  0xba, 0x8c, 0x80, 0xbd, 0x94, 0x27, 0x06, 0xbe, 0x64, 0x76, 0x7b, 0x3d,
  0x76, 0xd2, 0x85, 0xbd, 0x05, 0xbb, 0x9f, 0xbe, 0x8b, 0x05, 0x96, 0xbe,
  0x3b, 0x53, 0xf9, 0x3c, 0x27, 0x80, 0x0e, 0x3c, 0x1c, 0x76, 0xbd, 0x3d,
  0x6c, 0xbd, 0x0d, 0xbe, 0xef, 0xe8, 0x13, 0xbe, 0xb0, 0x00, 0x8c, 0xbd,
  0x07, 0x5d, 0xe1, 0xbd, 0x4a, 0x5e, 0x83, 0xbe, 0x3f, 0x35, 0xa5, 0x3e,
  0xe7, 0xa6, 0x6c, 0x3e, 0x4a, 0xba, 0x4c, 0x3e, 0x57, 0x19, 0x26, 0x3e,
  0x9f, 0xf4, 0xc9, 0x3d, 0x75, 0x42, 0x0c, 0x3e, 0x6f, 0x1f, 0x51, 0xbc,
  0x33, 0x69, 0xa9, 0x3d, 0x66, 0xb3, 0x79, 0x3e, 0x92, 0xed, 0x0b, 0x3d,
  0x46, 0x08, 0x33, 0x3e, 0x7a, 0xab, 0x23, 0xbe, 0xfb, 0x52, 0x25, 0x3d,
  0x88, 0x57, 0x01, 0x3e, 0x71, 0xc4, 0x61, 0xbe, 0x5f, 0xda, 0x1b, 0xbe,
  0xbe, 0x6c, 0xbe, 0x3d, 0x63, 0xa9, 0x16, 0xbd, 0xdd, 0x20, 0x82, 0x3d,
  0x86, 0x36, 0xfb, 0x3d, 0xd7, 0xa6, 0xaf, 0xbd, 0x95, 0x0e, 0x6f, 0xbe,
  0x3b, 0x77, 0x1f, 0x3d, 0xda, 0x8f, 0xb1, 0xbb, 0x90, 0xd1, 0xd4, 0x3d,
  0xff, 0x9d, 0xa0, 0xbe, 0xcd, 0x9d, 0x82, 0x3d, 0xb6, 0x74, 0x35, 0xbe,
  0x6d, 0x6c, 0x6a, 0xbe, 0x47, 0x11, 0x3b, 0xbe, 0x0f, 0x2d, 0x0e, 0xbe,
  0x27, 0x29, 0xd2, 0x3d, 0x86, 0x51, 0xb5, 0x3e, 0x2d, 0x3a, 0x21, 0xbe,
  0x11, 0xd9, 0xe1, 0xbc, 0x74, 0x15, 0x98, 0xbd, 0x80, 0x53, 0x04, 0xbe,
  0xba, 0xe4, 0xc1, 0x3d, 0xd0, 0x9d, 0xd8, 0x3d, 0x31, 0x14, 0x45, 0xbd,
  0x32, 0x31, 0x9b, 0x3d, 0x74, 0x53, 0xb1, 0xbd, 0x55, 0x18, 0xdf, 0xbd,
  0x52, 0xc9, 0x8c, 0xbe, 0x3b, 0xe6, 0x25, 0xbe, 0xd5, 0x07, 0x59, 0xbe,
  0x74, 0x5a, 0x5d, 0xbe, 0x81, 0x9d, 0x7d, 0xbc, 0x75, 0xe1, 0x03, 0x3f,
  0xf6, 0x4a, 0x6e, 0xbe, 0x4f, 0x5f, 0xd1, 0xbd, 0x57, 0x5d, 0x8d, 0xbc,
  0xb5, 0x57, 0x05, 0xbe, 0xee, 0x22, 0x3b, 0xbe, 0x95, 0x6a, 0xc5, 0xbc,
  0xf7, 0xc9, 0x63, 0x3d, 0x9c, 0x5e, 0x6f, 0xbc, 0xcd, 0x9f, 0x25, 0xbd,
  0xe8, 0x6c, 0x39, 0xbe, 0xe9, 0x4c, 0x19, 0xbe, 0x28, 0xcb, 0xde, 0xbc,
  0x06, 0x50, 0xfc, 0xbd, 0x14, 0x7c, 0x8a, 0xbe, 0x63, 0x55, 0x3a, 0xbe,
  0xb7, 0x93, 0x09, 0x3f, 0xc0, 0xdc, 0xe5, 0xbd, 0x6f, 0x34, 0x3b, 0x3e,
  0x40, 0xbc, 0x1b, 0xbe, 0x90, 0xa0, 0x27, 0xbe, 0xdf, 0xa8, 0x2b, 0xbe,
  0x92, 0x0f, 0x1d, 0x3e, 0x4f, 0xe6, 0x88, 0xbd, 0x38, 0x51, 0xa6, 0x3e,
  0x77, 0xa9, 0x64, 0xbe, 0xb3, 0x44, 0xf7, 0xbd, 0x42, 0x20, 0x64, 0xbe,
  0x08, 0x3e, 0x15, 0xbd, 0xe1, 0xa4, 0x5d, 0xbe, 0xb2, 0x8c, 0xed, 0xbd,
  0x89, 0x65, 0xfa, 0xbc, 0xb5, 0x3e, 0xaa, 0x3e, 0xbb, 0x2b, 0x9c, 0xbd,
  0xb2, 0xe7, 0xb2, 0x3d, 0x46, 0x73, 0x2c, 0xbe, 0xa8, 0x43, 0xac, 0xbd,
  0x69, 0x75, 0xb6, 0x3d, 0x51, 0xf7, 0x58, 0xbd, 0x23, 0x5c, 0x85, 0xbd,
  0x5e, 0xdd, 0xf3, 0x3c, 0x77, 0xdc, 0x12, 0xbe, 0x86, 0x0e, 0x1e, 0x3e,
  0x22, 0x6e, 0x40, 0x3d, 0x3a, 0xb7, 0x3f, 0xbd, 0x2a, 0x71, 0xf4, 0xbd,
  0x58, 0x8e, 0x5a, 0xbe, 0x63, 0x8a, 0xe9, 0xbd, 0x3a, 0xfe, 0xd8, 0x3e,
  0xc5, 0x06, 0x00, 0xbe, 0x97, 0x28, 0x45, 0x3e, 0xe5, 0x55, 0x80, 0xbe,
  0x0b, 0xfc, 0x3d, 0xbe, 0x9f, 0x0c, 0x37, 0xbe, 0xd8, 0xab, 0x07, 0x3e,
  0x06, 0x54, 0x23, 0xbe, 0x6a, 0xd0, 0xa1, 0x3e, 0xc4, 0x2d, 0x97, 0x3c,
  0x88, 0x83, 0x08, 0x3e, 0x3d, 0xb1, 0x43, 0xbe, 0xd9, 0x19, 0x6b, 0xbd,
  0x8e, 0x0e, 0xd3, 0xbc, 0x57, 0x42, 0x57, 0xbe, 0x32, 0xf5, 0x95, 0x3d,
  0x76, 0x65, 0xfe, 0x3e, 0xf8, 0xcb, 0x40, 0xbe, 0x2b, 0x9a, 0x9a, 0x3d,
  0xdc, 0x7a, 0x81, 0xbe, 0xe9, 0xbd, 0x90, 0xbe, 0x6d, 0xba, 0x9f, 0xbc,
  0x38, 0xfe, 0xad, 0x3d, 0xe1, 0x08, 0xaf, 0xbd, 0xc2, 0x97, 0xaf, 0x3e,
  0xca, 0xf4, 0xe4, 0xbd, 0x48, 0x43, 0x86, 0xbe, 0x12, 0x7b, 0x05, 0xbe,
  0x33, 0x92, 0x30, 0xbe, 0xae, 0xd4, 0x48, 0xbe, 0xfd, 0x18, 0x70, 0xbe,
  0x90, 0x56, 0x9a, 0x3d, 0x0a, 0xd3, 0x32, 0x3e, 0x5b, 0xc8, 0x44, 0xbe,
  0x81, 0xbd, 0xfa, 0xbc, 0x49, 0x25, 0xb7, 0xbd, 0xb1, 0x9b, 0xcc, 0xbd,
  0x5e, 0xca, 0xe6, 0x3d, 0xc3, 0x24, 0x16, 0xbf, 0x8e, 0x86, 0x41, 0xbe,
  0x13, 0x3b, 0x84, 0x3e, 0x98, 0x47, 0xe0, 0xbd, 0xb6, 0x15, 0x09, 0xbe,
  0xa5, 0xfa, 0x9e, 0xbd, 0xaa, 0x89, 0xc6, 0x3d, 0xa9, 0xe8, 0x88, 0xbe,
  0x6a, 0x0d, 0xae, 0x3c, 0x3c, 0x40, 0xb4, 0x3e, 0x66, 0x98, 0xdf, 0x3d,
  0x48, 0xa1, 0xe5, 0xbd, 0xe6, 0xd7, 0xbd, 0x3b, 0x99, 0x3a, 0x51, 0xbe,
  0xbe, 0x54, 0x1d, 0xbe, 0xc0, 0xc0, 0x33, 0xbd, 0x12, 0x0b, 0xda, 0x3e,
  0x61, 0xde, 0x56, 0xbd, 0xa1, 0x89, 0x04, 0xbd, 0xaf, 0x39, 0xfd, 0xbe,
  0x33, 0xf7, 0x88, 0x3d, 0xd5, 0x02, 0x04, 0xbd, 0x17, 0xa1, 0x9d, 0x3d,
  0xd0, 0xcf, 0x69, 0x3e, 0x5b, 0xab, 0x82, 0xbc, 0xae, 0xe6, 0x47, 0x3e,
  0xe1, 0xd8, 0x71, 0x3e, 0xf1, 0x61, 0x4b, 0x3b, 0x73, 0x1d, 0x3f, 0xbe,
  0x40, 0x26, 0xdf, 0xbe, 0xf0, 0x3f, 0xff, 0x3c, 0xcd, 0x45, 0xe0, 0x3c,
  0x67, 0x4b, 0x8e, 0x3e, 0x2c, 0x02, 0xe1, 0xbd, 0xaf, 0x50, 0xa0, 0x3d,
  0x01, 0x71, 0xba, 0xbe, 0x55, 0xff, 0x59, 0x3e, 0xf1, 0x41, 0x1f, 0x3c,
  0x63, 0x2c, 0xb7, 0x3d, 0xdf, 0x12, 0xae, 0x3e, 0x93, 0x91, 0x79, 0x3d,
  0x26, 0x44, 0xcd, 0x3d, 0x33, 0x7f, 0xa5, 0x3d, 0x5c, 0xd6, 0xb4, 0x3d,
  0xb1, 0xa8, 0x85, 0x3e, 0x40, 0x7f, 0x3c, 0xbe, 0xfd, 0x22, 0x25, 0xbe,
  0x81, 0x59, 0x5e, 0x3d, 0x3f, 0x57, 0x97, 0xbc, 0x25, 0xde, 0x31, 0xbe,
  0x93, 0xa7, 0x80, 0x3d, 0x32, 0x86, 0x7d, 0xbc, 0xac, 0x30, 0x5e, 0x3d,
  0x35, 0x07, 0xa0, 0x3d, 0x21, 0x6f, 0x25, 0x3d, 0xbf, 0x22, 0x82, 0x3e,
  0xc7, 0x73, 0x90, 0x3d, 0x12, 0xbc, 0x1a, 0xbe, 0x62, 0x3c, 0x92, 0xbc,
  0x20, 0x71, 0xb0, 0xbd, 0x3f, 0x0d, 0xfe, 0x3d, 0x79, 0x64, 0x7d, 0xbd,
  0xa8, 0x87, 0x04, 0xbe, 0xfa, 0x2e, 0x10, 0x3d, 0xca, 0x5b, 0x4a, 0x3c,
  0xd9, 0xda, 0xa1, 0xbb, 0xb6, 0xf8, 0x91, 0xbd, 0xe6, 0xfa, 0xa0, 0xbd,
  0x74, 0xf6, 0xcb, 0x3e, 0xe8, 0xf1, 0xc9, 0x3d, 0x79, 0x09, 0x13, 0x3e,
  0x92, 0xff, 0x95, 0x3e, 0xab, 0x30, 0x37, 0x3c, 0x95, 0xbe, 0x21, 0xbe,
  0x1d, 0x1a, 0x5f, 0xbe, 0xa7, 0xc7, 0xb0, 0xbd, 0xee, 0xec, 0x7a, 0x3e,
  0xf3, 0x62, 0x90, 0xbe, 0x2d, 0x98, 0x95, 0xbd, 0xf3, 0xc3, 0xec, 0x3d,
  0x38, 0x4d, 0xf3, 0xbd, 0x38, 0x6c, 0x4b, 0xbe, 0x36, 0x1a, 0x55, 0x3e,
  0x06, 0x06, 0x33, 0xbf, 0x66, 0x21, 0xfe, 0x3d, 0xa0, 0x99, 0x09, 0xbe,
  0x3e, 0xc3, 0x95, 0xbe, 0x23, 0x9b, 0xa0, 0x3d, 0x28, 0x39, 0x31, 0x3d,
  0x3b, 0x6f, 0x18, 0x3e, 0x66, 0xa7, 0xf9, 0xbd, 0xe5, 0xf5, 0x0f, 0xbe,
  0x65, 0xd8, 0xb3, 0x3d, 0x7c, 0x6d, 0x15, 0xbf, 0x9d, 0xf1, 0x09, 0xbc,
  0x3e, 0xd8, 0x1c, 0x3d, 0x7f, 0x7f, 0xb3, 0xbd, 0x92, 0x5f, 0x3f, 0xbb,
  0x85, 0xbe, 0x9d, 0x3d, 0x0e, 0x41, 0x2e, 0xbe, 0x8b, 0x6c, 0x4d, 0xbc,
  0x2a, 0x6b, 0xc3, 0xbd, 0x82, 0x99, 0xfd, 0x3d, 0x16, 0x80, 0x0a, 0xbe,
  0x95, 0xc9, 0x0e, 0x3b, 0x97, 0x3a, 0x57, 0xbd, 0x39, 0xb2, 0x44, 0x3e,
  0x65, 0x7b, 0xfa, 0xbb, 0x60, 0x9a, 0x18, 0xbe, 0x61, 0xe8, 0x42, 0x3d,
  0x05, 0x8f, 0xc8, 0x3d, 0x8d, 0x9e, 0x0c, 0xbf, 0x08, 0x9e, 0x57, 0xbe,
  0x06, 0x15, 0x8d, 0xbe, 0xf7, 0x9c, 0x92, 0xbd, 0x95, 0x45, 0x57, 0x3d,
  0xcc, 0x63, 0xd9, 0xbd, 0x52, 0xa1, 0xfa, 0x3d, 0x23, 0x38, 0xbb, 0xbd,
  0x76, 0x5b, 0x91, 0x3d, 0x39, 0xbc, 0x37, 0x3d, 0x8c, 0x1e, 0x7e, 0xbe,
  0x69, 0x3b, 0x13, 0x3f, 0x6b, 0xab, 0xea, 0xbd, 0x97, 0x97, 0x2d, 0x3e,
  0x79, 0x44, 0x08, 0x3e, 0x6c, 0x55, 0x6f, 0xbe, 0x7d, 0x88, 0x1f, 0xbe,
  0x4d, 0xd6, 0x01, 0xbf, 0xb1, 0xbe, 0x37, 0xbe, 0x30, 0xab, 0xff, 0xbd,
  0x56, 0x2a, 0xee, 0x3d, 0x22, 0x88, 0x2a, 0xbe, 0xe3, 0xf7, 0xf1, 0xbc,
  0x2b, 0x78, 0x04, 0x3e, 0x48, 0xb1, 0xfa, 0x3d, 0x4e, 0x0e, 0xd1, 0xbb,
  0xf4, 0x9b, 0x32, 0xbe, 0x8f, 0xaf, 0x29, 0x3f, 0xaf, 0xbd, 0xbe, 0xbe,
  0xec, 0x5c, 0x95, 0x3e, 0x79, 0xe6, 0x1e, 0x3e, 0x0b, 0x32, 0x16, 0xbe,
  0x07, 0x34, 0x89, 0xbd, 0xb0, 0x58, 0xd0, 0xbe, 0x7f, 0x3b, 0xda, 0xbe,
  0xde, 0x1e, 0x26, 0xbe, 0x84, 0x8e, 0x7e, 0x3e, 0xbb, 0x86, 0x13, 0x3e,
  0x1a, 0x54, 0x00, 0xbe, 0x4b, 0xa9, 0x43, 0x3e, 0xbc, 0xba, 0xa7, 0x3e,
  0x16, 0xd2, 0xbe, 0x3c, 0x49, 0xc1, 0x0f, 0xbe, 0x5f, 0x7b, 0x35, 0x3e,
  0x3c, 0xca, 0xad, 0xbe, 0xde, 0x7b, 0x84, 0xbe, 0x18, 0x57, 0x5b, 0x3d,
  0xdb, 0x4a, 0x9c, 0xbe, 0xbc, 0x7f, 0x9a, 0xbc, 0x2e, 0x2f, 0xb1, 0xbe,
  0xf1, 0x4a, 0xdd, 0xbe, 0x11, 0x29, 0x3d, 0xbe, 0x1d, 0x71, 0xb8, 0x3d,
  0x6b, 0x77, 0xfc, 0x3d, 0x93, 0xff, 0xf1, 0xbd, 0x3d, 0x42, 0x70, 0x3e,
  0x36, 0x22, 0xba, 0x3e, 0xbd, 0x9f, 0x63, 0x3c, 0x97, 0x14, 0x25, 0xbe,
  0xaf, 0xbe, 0x69, 0x3e, 0x7f, 0xbd, 0x8d, 0xbe, 0xf1, 0x54, 0xfa, 0x3d,
  0x4c, 0xb2, 0x34, 0xbd, 0x28, 0x51, 0x75, 0xbe, 0x09, 0xb8, 0x98, 0xbe,
  0x0e, 0x41, 0x36, 0xbf, 0x89, 0xef, 0xe2, 0xbe, 0xfa, 0x24, 0x69, 0xbe,
  0x79, 0x34, 0xeb, 0x3d, 0x0a, 0x56, 0xda, 0xbd, 0xde, 0x99, 0xf4, 0xbd,
  0x65, 0x32, 0x69, 0x3e, 0x0d, 0xfb, 0x2c, 0xbf, 0x18, 0x0b, 0x48, 0xbc,
  0x1e, 0x29, 0x71, 0xbe, 0x78, 0x5f, 0xa2, 0x3d, 0xaa, 0xf0, 0x12, 0xbe,
  0x07, 0x83, 0xd8, 0xbb, 0xbd, 0x55, 0x76, 0x3d, 0xa6, 0x63, 0xd8, 0xbd,
  0xce, 0xbf, 0xb4, 0xbe, 0x8d, 0xb4, 0x12, 0xbf, 0x0d, 0xc5, 0xd2, 0xbe,
  0x87, 0xb6, 0x31, 0xbe, 0xfc, 0x6e, 0x2c, 0x3e, 0xbb, 0xd1, 0xd0, 0xbe,
  0x85, 0x1e, 0x7d, 0x3d, 0x72, 0x44, 0x08, 0x3e, 0xc8, 0x25, 0x43, 0xbd,
  0x9f, 0xeb, 0x18, 0x3d, 0x71, 0x7c, 0xb2, 0xbc, 0x03, 0x88, 0x88, 0x3e,
  0xab, 0x29, 0xfd, 0xbd, 0x2a, 0x47, 0x2c, 0xbe, 0x4b, 0x71, 0xca, 0x3c,
  0x21, 0xe3, 0xc8, 0xbd, 0xca, 0x91, 0x48, 0xbe, 0x52, 0x6d, 0x96, 0xbd,
  0x2d, 0xdc, 0x6b, 0xbd, 0x91, 0x4f, 0xf1, 0xbe, 0x69, 0x2c, 0xd6, 0x3c,
  0xd8, 0xba, 0x7d, 0xbe, 0x0b, 0x1d, 0x22, 0x3d, 0x04, 0xc6, 0x95, 0x3c,
  0xa5, 0x7a, 0x3c, 0xbd, 0x43, 0x0f, 0x81, 0xbc, 0x65, 0x29, 0x3b, 0x3d,
  0x09, 0xd8, 0x47, 0x3e, 0xff, 0xe5, 0x56, 0xbe, 0xa7, 0xba, 0xc3, 0x3d,
  0x4b, 0x1f, 0x28, 0xbd, 0xb8, 0xf3, 0x08, 0xbe, 0xaf, 0x1b, 0x71, 0xbc,
  0x60, 0x35, 0xaf, 0x3e, 0x23, 0x5c, 0xb9, 0xbd, 0xaf, 0x97, 0x07, 0xbe,
  0x2d, 0xba, 0x28, 0x3d, 0x2a, 0xd5, 0x81, 0x3e, 0x11, 0x26, 0xb5, 0x3d,
  0x48, 0x4c, 0x82, 0x3c, 0x00, 0xda, 0x24, 0x3e, 0x36, 0xa5, 0x85, 0x3d,
  0xd5, 0xd9, 0x9f, 0xbd, 0x43, 0xfa, 0x72, 0xbe, 0x77, 0xe9, 0x31, 0x3e,
  0xe7, 0xd6, 0x9a, 0x3c, 0x7c, 0x31, 0xe2, 0x3d, 0x71, 0xbe, 0x80, 0xbd,
  0x3b, 0x0d, 0xca, 0xbd, 0xd2, 0x1e, 0x0a, 0xbf, 0x73, 0xf7, 0xc6, 0xbe,
  0x71, 0x43, 0x54, 0xbe, 0x45, 0xb0, 0xd9, 0xbc, 0x90, 0xd1, 0x70, 0x3e,
  0x2f, 0xfd, 0x23, 0x3c, 0x07, 0x52, 0xbe, 0x3a, 0xe7, 0x59, 0x4b, 0xbe,
  0xff, 0xce, 0x9b, 0xbc, 0xee, 0x2f, 0x07, 0xbe, 0x1a, 0x3c, 0x46, 0xbe,
  0x56, 0x95, 0x95, 0xbd, 0x5d, 0x85, 0x61, 0x3e, 0x49, 0xb4, 0x06, 0x3e,
  0x48, 0xf0, 0x70, 0xbd, 0x34, 0x42, 0x59, 0xbd, 0xb0, 0xe1, 0x12, 0xbf,
  0xbc, 0x55, 0x25, 0xbf, 0xb0, 0xb3, 0x76, 0xbe, 0x06, 0x75, 0xbb, 0xbc,
  0xce, 0xcb, 0x17, 0xbe, 0xd5, 0x2f, 0x1b, 0xbe, 0xca, 0xbc, 0xa7, 0x3d,
  0x62, 0x7a, 0xad, 0xbd, 0x32, 0x89, 0xb5, 0xbc, 0x67, 0x2a, 0x3c, 0xbd,
  0x12, 0x80, 0x28, 0x3e, 0xd4, 0xe3, 0x4e, 0xbd, 0x40, 0xbf, 0x7a, 0x3e,
  0x5c, 0x60, 0x65, 0xbd, 0xb7, 0xdb, 0xe4, 0x3d, 0xf4, 0x5c, 0x7d, 0xbd,
  0x6d, 0xda, 0x0c, 0xbf, 0x80, 0x0c, 0x3f, 0xbf, 0xa7, 0xe5, 0x27, 0xbe,
  0xc5, 0x98, 0x1d, 0xbb, 0x48, 0x98, 0x4e, 0xbe, 0x26, 0x67, 0xac, 0xbd,
  0x93, 0x20, 0xac, 0x3d, 0x9f, 0xa5, 0xad, 0xbd, 0xf7, 0x92, 0x91, 0xbc,
  0x48, 0xa2, 0xb5, 0x3b, 0xd2, 0x42, 0x36, 0x3e, 0xc9, 0xbf, 0xd5, 0xbb,
  0x9c, 0xaa, 0x57, 0xbe, 0x1e, 0xfa, 0x56, 0xbe, 0x59, 0x3c, 0xe4, 0x3d,
  0x11, 0x73, 0x2b, 0xbd, 0xe1, 0xcc, 0xe3, 0xbd, 0x7f, 0xba, 0xb1, 0xbe,
  0x48, 0x9b, 0x2e, 0xbe, 0x2c, 0x7e, 0x7e, 0xbc, 0x94, 0xa8, 0x0d, 0x3e,
  0x76, 0xa7, 0xee, 0xbd, 0x35, 0x7d, 0xd3, 0x3d, 0x67, 0x47, 0x08, 0x3e,
  0xb6, 0x09, 0x0c, 0xbc, 0x34, 0x80, 0x6c, 0xbe, 0x92, 0x4b, 0x24, 0x3e,
  0x0d, 0x8d, 0x88, 0x3d, 0x20, 0x37, 0xec, 0xbd, 0x50, 0x61, 0x14, 0xbd,
  0x16, 0x10, 0xaa, 0x3d, 0x9b, 0x64, 0x61, 0xbd, 0xb7, 0x65, 0x99, 0xbd,
  0xba, 0xfe, 0x62, 0xbe, 0x49, 0x49, 0x0f, 0x3e, 0xa8, 0x03, 0xef, 0x3d,
  0x74, 0x6d, 0x07, 0x3f, 0x26, 0xd3, 0xff, 0xbd, 0xbb, 0xc2, 0x2a, 0x3e,
  0x77, 0x64, 0x81, 0x3e, 0xce, 0x15, 0x3f, 0xbb, 0xac, 0xc1, 0xdb, 0xbe,
  0x72, 0x71, 0x61, 0x3c, 0x9d, 0xe7, 0x9b, 0x3d, 0xa3, 0xc5, 0x7f, 0xbe,
  0xe6, 0x6b, 0x2d, 0x3e, 0x76, 0x08, 0x5c, 0xbd, 0x5f, 0x5d, 0xc4, 0xbc,
  0x90, 0x5d, 0x7b, 0xbd, 0x65, 0x92, 0xb5, 0x3d, 0x26, 0xac, 0x28, 0xbb,
  0x6e, 0xbe, 0x34, 0x3d, 0xc0, 0xd1, 0x3d, 0x3c, 0x6b, 0x5a, 0xc6, 0xbd,
  0x86, 0xd3, 0xa5, 0x3a, 0x0b, 0xf9, 0xba, 0x3d, 0x44, 0x43, 0x28, 0xbc,
  0x38, 0x4b, 0xb3, 0xbe, 0xcc, 0x95, 0x2b, 0x3e, 0x03, 0xd8, 0x72, 0xbc,
  0xb7, 0x15, 0xad, 0x3d, 0x5c, 0x66, 0x01, 0x3d, 0xd7, 0x22, 0x63, 0xbe,
  0x54, 0xf6, 0xa4, 0xbd, 0xed, 0xc6, 0x97, 0xbe, 0x37, 0xf6, 0x42, 0x3d,
  0x98, 0x0e, 0x9c, 0x3d, 0xe8, 0xa1, 0x73, 0xbe, 0x76, 0xf1, 0xb2, 0xbe,
  0x39, 0xa9, 0x0a, 0xbf, 0x16, 0xd6, 0xdf, 0x3c, 0x4a, 0xc1, 0xfa, 0xbe,
  0xe2, 0xed, 0x82, 0xbd, 0x94, 0xd4, 0x31, 0xbd, 0xa6, 0x73, 0xde, 0x3e,
  0x19, 0xb0, 0xe3, 0xbe, 0xf4, 0x1f, 0x1f, 0xbf, 0xb6, 0xfd, 0xdb, 0xbe,
  0x84, 0x83, 0xe1, 0xbe, 0x8a, 0xfa, 0x15, 0xbd, 0x31, 0x6f, 0x90, 0xbe,
  0xb9, 0xd3, 0xb2, 0xbd, 0x0c, 0x71, 0xa7, 0xbc, 0x2c, 0x08, 0xd4, 0xbe,
  0x93, 0x93, 0xf2, 0xbd, 0x51, 0xb1, 0xc5, 0xbe, 0xbd, 0x15, 0x0b, 0xbe,
  0x4f, 0xc9, 0x87, 0xbe, 0x35, 0x93, 0x84, 0xbc, 0x32, 0xc3, 0x86, 0xbe,
  0xe6, 0x2c, 0xd6, 0x3e, 0xa4, 0x37, 0x9b, 0xbe, 0x9c, 0x3e, 0x0b, 0xbd,
  0xea, 0x6a, 0x21, 0xbf, 0x32, 0xc2, 0xcf, 0xbe, 0xc6, 0xef, 0x9c, 0xbc,
  0x03, 0x95, 0x8b, 0xbe, 0x78, 0xa2, 0x0e, 0xbe, 0x91, 0xd7, 0x25, 0xbe,
  0x18, 0x44, 0x1f, 0xbf, 0xca, 0xf1, 0xb6, 0x3d, 0x7b, 0x55, 0x32, 0xbf,
  0x79, 0x7a, 0x55, 0xbe, 0x71, 0x25, 0x8f, 0xbe, 0x77, 0x95, 0xa4, 0xbc,
  0x5f, 0xbd, 0x3d, 0xbd, 0x27, 0x86, 0xb0, 0x3e, 0x21, 0x0d, 0xec, 0xbe,
  0x81, 0x56, 0x6a, 0xbe, 0xcd, 0xb5, 0x49, 0xbf, 0x5d, 0xfa, 0xdd, 0xbe,
  0xcb, 0xbd, 0x7e, 0xbd, 0xe1, 0x5c, 0x87, 0xbe, 0xca, 0x0d, 0xce, 0xbe,
  0x50, 0xb5, 0x4c, 0xbd, 0x88, 0xa4, 0x1d, 0xbf, 0x23, 0xbc, 0x0e, 0xbe,
  0xcb, 0x1f, 0x34, 0xbf, 0x79, 0xf1, 0xa4, 0xbe, 0xfb, 0x1a, 0x72, 0xbe,
  0x0a, 0x02, 0x7b, 0xbd, 0x06, 0x6c, 0xa4, 0x3b, 0xa3, 0xe7, 0xaf, 0x3e,
  0x52, 0x7e, 0xc8, 0xbe, 0xdf, 0xcc, 0xf8, 0xbe, 0x46, 0x25, 0x25, 0xbf,
  0xe0, 0x63, 0x0a, 0xbf, 0xc6, 0x7b, 0xb3, 0xbd, 0x4a, 0xe6, 0xa3, 0x3d,
  0x75, 0x86, 0xf0, 0xbd, 0x8a, 0x2e, 0xa8, 0xbe, 0x50, 0xff, 0xf5, 0x3d,
  0xef, 0xf6, 0x87, 0x3d, 0x47, 0xc8, 0x86, 0x3e, 0x38, 0x32, 0x28, 0x3d,
  0x7d, 0xb1, 0xd9, 0x3d, 0x70, 0x87, 0xba, 0xbb, 0x0a, 0x4d, 0x21, 0xbe,
  0xd1, 0xbc, 0x92, 0x3e, 0xf3, 0x07, 0x80, 0xbc, 0x6c, 0xad, 0x8e, 0xbe,
  0x2a, 0xbd, 0x91, 0xbe, 0x35, 0x47, 0x2e, 0xbf, 0x16, 0x10, 0x4a, 0x3c,
  0x9f, 0xdd, 0xff, 0x3d, 0x95, 0x37, 0xbf, 0x3d, 0x2b, 0x1a, 0x12, 0xbe,
  0x7b, 0x67, 0xb4, 0x3b, 0x55, 0xca, 0x7c, 0x3e, 0x26, 0x40, 0x89, 0x3c,
  0x4f, 0xd0, 0x2f, 0x3d, 0x18, 0x71, 0x5b, 0x3e, 0x3e, 0x9f, 0x30, 0x3d,
  0xaf, 0x13, 0x7c, 0xbe, 0x3d, 0x0d, 0x0f, 0x3e, 0x88, 0xc5, 0x80, 0x3d,
  0x02, 0xc7, 0xcc, 0xbe, 0x08, 0x95, 0x41, 0xbe, 0xb7, 0x2f, 0xc5, 0xbe,
  0xd7, 0x20, 0x15, 0x3c, 0x6b, 0xb8, 0xe8, 0x3d, 0xce, 0x78, 0xc9, 0x3a,
  0x10, 0xdd, 0x21, 0xbe, 0xae, 0x01, 0xda, 0x3d, 0xf5, 0x43, 0x7c, 0x3c,
  0x6a, 0x55, 0x15, 0x3d, 0x5a, 0xd8, 0x12, 0x3d, 0x72, 0x31, 0xd2, 0x3d,
  0x45, 0xd5, 0xe4, 0x3c, 0xdd, 0x9e, 0x25, 0x3e, 0xdb, 0x43, 0x70, 0x3e,
  0x99, 0x63, 0x75, 0xbc, 0xf5, 0x2b, 0x15, 0x3e, 0x09, 0x77, 0xce, 0x3b,
  0x5a, 0x1b, 0xaa, 0xbe, 0xcb, 0x6d, 0xd5, 0x3d, 0x14, 0xb2, 0xc4, 0xbd,
  0xd2, 0xc8, 0x2a, 0x3e, 0xfd, 0x6d, 0x1b, 0x3e, 0x90, 0x90, 0x08, 0xbe,
  0xd1, 0xfc, 0x3d, 0xbd, 0xf9, 0x05, 0x73, 0xbe, 0xe9, 0xcc, 0x99, 0x3a,
  0x37, 0x6d, 0x45, 0xbe, 0x59, 0x83, 0x8f, 0x3b, 0x11, 0x45, 0x5e, 0x3e,
  0xe0, 0xe4, 0xb6, 0xbb, 0x8f, 0x25, 0xc4, 0xbe, 0x2b, 0x51, 0xd3, 0xbe,
  0x50, 0x4c, 0xe9, 0xbd, 0xaa, 0xef, 0x89, 0x3d, 0x5b, 0x38, 0x54, 0x3c,
  0xa8, 0x70, 0xca, 0x3e, 0xac, 0xef, 0x0c, 0x3f, 0xad, 0xd7, 0xd7, 0x3e,
  0x81, 0xb3, 0xc6, 0xbd, 0x6a, 0xee, 0x79, 0xbe, 0xde, 0x48, 0x80, 0xbd,
  0x4d, 0xcc, 0x73, 0xbd, 0x76, 0x66, 0xa0, 0x3e, 0x5f, 0x93, 0x92, 0x3d,
  0x31, 0xbd, 0xc0, 0x3e, 0x85, 0xc9, 0x50, 0xbd, 0x7c, 0x92, 0x2e, 0xbe,
  0x46, 0xb3, 0x95, 0xbd, 0xd4, 0x94, 0x1f, 0xbe, 0xd5, 0x57, 0xf9, 0xbc,
  0x5a, 0xa5, 0xcd, 0x3d, 0x03, 0xf4, 0xe3, 0x3e, 0x65, 0x3c, 0xef, 0x3e,
  0x01, 0x7b, 0xa6, 0x3e, 0x00, 0x46, 0xf0, 0x3d, 0xd9, 0xef, 0xc4, 0xbd,
  0x10, 0x44, 0xe3, 0x3d, 0x83, 0x57, 0x38, 0xbd, 0x7b, 0xf0, 0x30, 0x3e,
  0xb4, 0x8b, 0x8a, 0x3d, 0x5e, 0x52, 0x3e, 0x3e, 0xa3, 0xc5, 0xa7, 0x3d,
  0xc8, 0x14, 0x5e, 0xbe, 0x49, 0x59, 0x52, 0x3e, 0xee, 0x7b, 0x5d, 0xbe,
  0x12, 0xc2, 0xd7, 0x3a, 0xe0, 0x6f, 0xb9, 0x3d, 0xd3, 0x96, 0xc5, 0x3e,
  0x4f, 0xc8, 0x03, 0x3f, 0x12, 0xe3, 0xdb, 0x3d, 0x86, 0x37, 0x19, 0x3d,
  0xd5, 0x1e, 0xeb, 0x3d, 0xd3, 0x52, 0x90, 0xbd, 0x28, 0xfc, 0x13, 0x3b,
  0xa7, 0xbb, 0x85, 0x3d, 0x10, 0x01, 0x6e, 0xbc, 0xe0, 0x53, 0xe9, 0xbd,
  0xb4, 0xb4, 0x57, 0xbe, 0xdf, 0x53, 0x02, 0xbf, 0x19, 0xc9, 0xa9, 0x3e,
  0xda, 0x6d, 0xbd, 0xbc, 0xb9, 0xa8, 0x92, 0x3d, 0x21, 0xb8, 0xb4, 0x3d,
  0x51, 0xe7, 0x2f, 0x3e, 0xc4, 0x8b, 0x53, 0x3e, 0x97, 0x24, 0xc0, 0x3e,
  0x8a, 0xd3, 0xb2, 0x3c, 0xb8, 0xbf, 0xaf, 0xbc, 0xae, 0x26, 0xb3, 0x3d,
  0x22, 0x43, 0x2a, 0xbe, 0x39, 0x45, 0x12, 0xbe, 0x95, 0x20, 0x45, 0x3d,
  0x3d, 0x76, 0x5e, 0x3e, 0xf8, 0x84, 0x94, 0xbd, 0xf0, 0xba, 0xcb, 0xbe,
  0x95, 0x42, 0xa5, 0x3e, 0x8f, 0x7c, 0x28, 0xbe, 0x4d, 0x5f, 0x61, 0x3d,
  0xf5, 0x99, 0xbd, 0x3d, 0x2c, 0x5c, 0xaa, 0x3e, 0xc0, 0x56, 0xcb, 0x3e,
  0xfd, 0xbb, 0x97, 0x3e, 0x3a, 0xaf, 0x19, 0xbe, 0x86, 0xf7, 0xe5, 0xbc,
  0x2f, 0x95, 0x04, 0xbe, 0x7c, 0x3a, 0x8d, 0xbe, 0x98, 0xe4, 0x01, 0x3d,
  0x28, 0xc0, 0x3c, 0x3d, 0x40, 0xf5, 0x1e, 0xbe, 0x2c, 0x0d, 0x9e, 0xbd,
  0x89, 0x92, 0xc2, 0xbe, 0x3f, 0x7e, 0x2f, 0x3d, 0x64, 0x05, 0x1f, 0xbe,
  0x84, 0x32, 0xbd, 0xbe, 0x65, 0x56, 0xc1, 0xbb, 0xfd, 0xb9, 0xdd, 0x3d,
  0x47, 0x28, 0xf2, 0xbd, 0x2b, 0x17, 0x8b, 0x3e, 0xd9, 0x76, 0x6b, 0xbe,
  0xab, 0x23, 0xab, 0xbd, 0x6a, 0xfb, 0x8b, 0x3d, 0x94, 0xd0, 0x5e, 0xbe,
  0xa0, 0xfc, 0x5f, 0xbe, 0xd7, 0x65, 0xd5, 0x3c, 0xd3, 0x00, 0x02, 0x3d,
  0x7a, 0xc8, 0x6d, 0x3d, 0xb0, 0xa5, 0x9f, 0xbe, 0x47, 0xd1, 0xc6, 0xbd,
  0x13, 0x7b, 0x0f, 0xbd, 0xf6, 0x15, 0x8b, 0xbe, 0xdc, 0x7b, 0x89, 0x3b,
  0x46, 0x56, 0xd3, 0xbd, 0x3d, 0xef, 0xab, 0x3d, 0x97, 0x9a, 0x0d, 0x3c,
  0x1a, 0xd2, 0xde, 0xbd, 0x94, 0x21, 0x03, 0xbe, 0x7c, 0x55, 0x97, 0xbe,
  0xb5, 0x70, 0x07, 0x3d, 0xbc, 0x52, 0x1c, 0xbc, 0x86, 0xbc, 0x97, 0xbe,
  0x7a, 0x80, 0xc7, 0x3e, 0x74, 0x61, 0x69, 0x3c, 0x40, 0xa7, 0x18, 0x3d,
  0xbf, 0x0d, 0xc8, 0x3d, 0x33, 0x95, 0xf8, 0xbe, 0xae, 0x62, 0x59, 0x3e,
  0xd7, 0x00, 0x13, 0xbe, 0xb9, 0xff, 0x9c, 0xbd, 0xe7, 0x49, 0xb2, 0xbd,
  0xc3, 0xf3, 0x8e, 0xbd, 0xf5, 0xba, 0x33, 0xbe, 0x28, 0x12, 0xda, 0xbd,
  0xd5, 0x34, 0x1f, 0xbd, 0xb5, 0x3c, 0x8e, 0xbc, 0x2f, 0x95, 0x24, 0x3e,
  0xaf, 0xa8, 0xbc, 0xbd, 0x21, 0xb4, 0x61, 0x3e, 0x5d, 0xf8, 0x2d, 0x3e,
  0xe5, 0xe6, 0xb9, 0x3d, 0x2f, 0xba, 0x28, 0xbe, 0x98, 0xd0, 0xa8, 0xbe,
  0x70, 0x4a, 0x3e, 0xbd, 0x7c, 0xde, 0x0b, 0xbe, 0xe7, 0x17, 0x41, 0x3e,
  0x5f, 0xb1, 0x30, 0x3d, 0x71, 0x14, 0x12, 0xbe, 0xdd, 0x67, 0x03, 0xbe,
  0x16, 0xe4, 0x09, 0x3e, 0xc1, 0xf2, 0x4f, 0xbc, 0x15, 0xe8, 0xa0, 0xbc,
  0xc1, 0x91, 0x76, 0x3e, 0x38, 0xa9, 0x92, 0xbe, 0x0c, 0xd5, 0xf7, 0x3d,
  0x02, 0x57, 0xd5, 0xbc, 0x45, 0xe3, 0xeb, 0xbc, 0x3f, 0x6e, 0x40, 0x3e,
  0x8d, 0xef, 0x27, 0x3c, 0x6a, 0x1f, 0xf4, 0x3b, 0x19, 0x38, 0x69, 0x3d,
  0x9d, 0x69, 0x50, 0xbe, 0xac, 0x6a, 0x3d, 0x3d, 0x7b, 0x41, 0x6c, 0xbe,
  0x53, 0xcd, 0xbc, 0xbc, 0x5c, 0xa5, 0x25, 0x3e, 0x5b, 0xeb, 0xf5, 0x3d,
  0x7a, 0x1a, 0x2b, 0x3e, 0xde, 0x52, 0x90, 0xbd, 0x6e, 0xbc, 0x55, 0xbe,
  0x86, 0x82, 0xbf, 0x3d, 0x97, 0x99, 0x2a, 0xbd, 0x05, 0x19, 0xfc, 0x3d,
  0xd4, 0xda, 0x8e, 0xbd, 0x3f, 0x11, 0xb3, 0x3d, 0x85, 0xe0, 0x2c, 0x3d,
  0xb8, 0x3e, 0x39, 0xbe, 0xad, 0xce, 0x08, 0x3e, 0x11, 0x6f, 0xe0, 0x3d,
  0x64, 0x4c, 0x85, 0xbd, 0x69, 0xcc, 0xe2, 0xbd, 0xa6, 0xa3, 0x2e, 0x3e,
  0x35, 0x1f, 0x7f, 0xbc, 0x11, 0xd0, 0x09, 0x3c, 0x84, 0xf8, 0xb1, 0x3d,
  0xf5, 0x15, 0xd3, 0xbe, 0xdc, 0x29, 0x8c, 0x3e, 0x4e, 0xcc, 0xf6, 0xbc,
  0x59, 0x79, 0x8e, 0x3d, 0xac, 0x96, 0x02, 0xbe, 0x25, 0xe5, 0xdd, 0x3c,
  0x80, 0x0d, 0x08, 0xbd, 0xc6, 0xf4, 0x68, 0xbe, 0xe9, 0xcd, 0x65, 0xbe,
  0x87, 0xae, 0x94, 0x3d, 0x7f, 0xa5, 0x0a, 0x3c, 0x26, 0x6b, 0x0d, 0xbe,
  0x47, 0x6e, 0x8b, 0xbd, 0x2f, 0xad, 0x2b, 0x3d, 0x96, 0x72, 0x76, 0xbe,
  0x19, 0x02, 0x63, 0x3d, 0xa1, 0xdf, 0x0c, 0xbf, 0xd2, 0xc2, 0x72, 0x3e,
  0x2a, 0xfc, 0x28, 0xbe, 0x08, 0xab, 0x66, 0x3d, 0xc0, 0x32, 0x64, 0xbd,
  0x7c, 0xbd, 0x43, 0xbe, 0x02, 0x67, 0x3a, 0x3d, 0xd0, 0xb7, 0xc3, 0x3d,
  0xfa, 0x70, 0x7f, 0xbd, 0x4e, 0xab, 0xa2, 0xbc, 0x8b, 0xa4, 0x02, 0x3e,
  0x2e, 0xeb, 0x6a, 0xbc, 0x07, 0xea, 0x24, 0xbe, 0xa4, 0xb5, 0x0a, 0xbe,
  0xa9, 0x1b, 0x9d, 0xbd, 0x17, 0xee, 0x29, 0xbd, 0x51, 0x89, 0x9c, 0xbe,
  0xf8, 0xa4, 0x8e, 0x3e, 0x01, 0x89, 0xc6, 0x3d, 0x0f, 0x11, 0x8d, 0xbc,
  0xa1, 0x8c, 0xd2, 0x3d, 0xf2, 0x9d, 0x51, 0xbe, 0x40, 0xab, 0xbf, 0x3d,
  0x60, 0xa4, 0xa1, 0x3d, 0xbb, 0x84, 0x68, 0xbd, 0x81, 0x02, 0x69, 0xbe,
  0xcb, 0xbc, 0x0d, 0x3e, 0x24, 0x7e, 0x8d, 0xbe, 0xf3, 0x54, 0x60, 0xbe,
  0xfb, 0xfe, 0xa4, 0xbe, 0x3c, 0x21, 0x84, 0xbe, 0x13, 0x0a, 0x4d, 0xbd,
  0x99, 0x5e, 0xb5, 0xbe, 0x85, 0x8d, 0x8a, 0x3e, 0x26, 0xcd, 0x8d, 0x3e,
  0xa8, 0xda, 0x83, 0xbe, 0x03, 0x00, 0x56, 0xbd, 0xff, 0x85, 0x47, 0xbe,
  0x2e, 0x8e, 0xac, 0x3d, 0xed, 0x09, 0x87, 0xbe, 0x03, 0x28, 0xe3, 0xbd,
  0x05, 0xed, 0x88, 0x3d, 0xb7, 0x6c, 0x8b, 0x3e, 0x39, 0x49, 0x85, 0xbe,
  0xa0, 0xc5, 0x19, 0x3e, 0x49, 0x64, 0x1e, 0xbd, 0x30, 0x38, 0x77, 0xbe,
  0x4a, 0x55, 0x6c, 0xbe, 0x45, 0x1b, 0x39, 0xbe, 0x9e, 0xe4, 0xd7, 0x3d,
  0x5a, 0x7c, 0x0e, 0x3f, 0xad, 0x92, 0x1f, 0xbd, 0x26, 0x58, 0x33, 0x3d,
  0x60, 0xad, 0x12, 0xbd, 0x78, 0x95, 0x55, 0xbe, 0xdc, 0xec, 0x91, 0x3d,
  0x6d, 0xef, 0x2f, 0x3d, 0xa0, 0x98, 0x1f, 0xbe, 0x2a, 0xe2, 0x35, 0x3e,
  0x83, 0xab, 0x53, 0x3d, 0xd1, 0x99, 0x98, 0x3c, 0x65, 0x62, 0xc7, 0x3c,
  0xd7, 0x0e, 0x9b, 0xbe, 0x91, 0xfb, 0xf3, 0xbd, 0x46, 0x4e, 0x89, 0xbe,
  0xda, 0xaf, 0x8f, 0x3d, 0x20, 0x94, 0xcd, 0x3e, 0xc7, 0x22, 0x99, 0xbd,
  0x11, 0xcf, 0x3a, 0x3d, 0xbd, 0xbe, 0x9e, 0x3d, 0xa4, 0xd4, 0x63, 0xbb,
  0xf0, 0x2e, 0x41, 0xbe, 0xb5, 0x5a, 0x2e, 0x3e, 0x1c, 0x54, 0x2c, 0xbd,
  0xd2, 0xa2, 0x9d, 0x3d, 0xbe, 0x87, 0x35, 0xbd, 0xf3, 0xbf, 0x48, 0xbe,
  0xca, 0x98, 0x46, 0x3c, 0x64, 0xa9, 0x63, 0xbe, 0xd5, 0x6a, 0xc7, 0xbd,
  0x96, 0x05, 0x99, 0xbe, 0x33, 0x9b, 0x2a, 0x3e, 0x4b, 0x95, 0x05, 0x3f,
  0x60, 0xad, 0x61, 0xbe, 0x17, 0x75, 0x0d, 0x3e, 0x85, 0xbe, 0x3e, 0xbe,
  0x9f, 0x15, 0x32, 0xbe, 0x0b, 0x96, 0x87, 0xbe, 0xae, 0xd4, 0x59, 0x3c,
  0xf5, 0x63, 0x3f, 0xbb, 0xf0, 0xb4, 0x67, 0x3e, 0x00, 0x99, 0x37, 0x3c,
  0x73, 0x91, 0x2d, 0x3e, 0xfb, 0x43, 0x79, 0xbd, 0xd3, 0xf3, 0x94, 0xbe,
  0x80, 0xea, 0xf9, 0xbd, 0x0c, 0x97, 0xfc, 0xbe, 0x40, 0x60, 0x00, 0x3e,
  0x11, 0x99, 0xeb, 0x3e, 0xea, 0x1b, 0x8c, 0x3d, 0xa8, 0x86, 0x0b, 0x3e,
  0xfe, 0xe4, 0x32, 0xbe, 0x96, 0xa1, 0x7b, 0xbe, 0x35, 0x78, 0x25, 0xbe,
  0xc1, 0x1a, 0x1d, 0x3e, 0x54, 0x5d, 0xa9, 0xbd, 0x2b, 0xf5, 0xa6, 0x3d,
  0xeb, 0xdf, 0xdc, 0xbd, 0xbc, 0x83, 0x10, 0xbe, 0x0f, 0xee, 0x65, 0xbd,
  0x47, 0x50, 0x9c, 0x3d, 0x62, 0xed, 0xa0, 0x3d, 0x1e, 0x1e, 0xe8, 0xbc,
  0xcc, 0x3a, 0x33, 0x3c, 0xe1, 0x54, 0xeb, 0x3e, 0xbb, 0x4b, 0xdc, 0xbd,
  0xbe, 0xe8, 0x96, 0xbd, 0xc1, 0xb1, 0x7e, 0xbc, 0x7e, 0x7d, 0x85, 0xbe,
  0x2c, 0xb4, 0x9e, 0xbe, 0x32, 0xab, 0xd4, 0xbd, 0x9d, 0x09, 0x09, 0x3d,
  0x17, 0x02, 0xdc, 0x3e, 0x9a, 0x31, 0x80, 0xbe, 0x12, 0x5a, 0xc5, 0xbd,
  0x46, 0xf6, 0x13, 0xbe, 0xbc, 0x29, 0x69, 0xbe, 0xaf, 0x6c, 0xf1, 0xbd,
  0xa5, 0x49, 0x99, 0xbd, 0xed, 0xe4, 0xab, 0xbd, 0xe1, 0x99, 0x12, 0x3f,
  0xe3, 0xc1, 0x57, 0xbd, 0x5c, 0x14, 0x1b, 0xbe, 0x12, 0xaa, 0x65, 0xbe,
  0xce, 0x4d, 0x69, 0xbd, 0xfe, 0xe6, 0xc4, 0xbe, 0x81, 0x99, 0x8e, 0x3c,
  0x5f, 0x96, 0x56, 0xbe, 0x21, 0xb1, 0x4c, 0x3d, 0x7c, 0x1a, 0xcb, 0xbe,
  0x99, 0x3e, 0xf1, 0xbd, 0xa7, 0x2e, 0x43, 0xbe, 0x88, 0xab, 0xdb, 0xbd,
  0xf9, 0xab, 0x8e, 0x3c, 0xcd, 0xe6, 0x98, 0xbe, 0x49, 0x61, 0xd9, 0x3c,
  0x64, 0x76, 0x0d, 0x3f, 0xc1, 0xec, 0x19, 0xbe, 0x9c, 0x14, 0xd9, 0x3d,
  0x11, 0x97, 0x70, 0xbe, 0x19, 0x7b, 0x94, 0xbe, 0x25, 0x70, 0xf1, 0xbd,
  0x2b, 0xbf, 0x2a, 0xbd, 0xfc, 0xbb, 0x97, 0x3d, 0xc8, 0x78, 0xd6, 0x3e,
  0x93, 0x2c, 0x69, 0xbe, 0xad, 0x97, 0x40, 0x3d, 0x30, 0x14, 0x15, 0x3d,
  0x4c, 0x5f, 0x0f, 0xbe, 0xf6, 0x44, 0x2d, 0xbe, 0x9d, 0xc8, 0x00, 0xbe,
  0x42, 0xf6, 0x22, 0xbe, 0x10, 0xe5, 0xdc, 0x3e, 0xad, 0x15, 0x92, 0xbd,
  0x8e, 0x06, 0x34, 0xbe, 0xbe, 0xce, 0x75, 0xbe, 0xc2, 0xe5, 0x29, 0xbe,
  0xbf, 0x81, 0x69, 0x3d, 0xe4, 0x4f, 0x43, 0xbe, 0x6e, 0x30, 0x3c, 0xbe,
  0xbe, 0xa8, 0xc5, 0x3e, 0x5c, 0xfa, 0x08, 0xbe, 0xcc, 0xb0, 0x82, 0xbe,
  0x0b, 0x8f, 0x10, 0xbe, 0x18, 0xcd, 0x17, 0x3d, 0x9c, 0xc3, 0x5d, 0xbb,
  0x51, 0x1c, 0x96, 0xbd, 0x8d, 0xb5, 0x2c, 0x3d, 0xf2, 0x3f, 0xf7, 0x3e,
  0x15, 0xad, 0x28, 0x3b, 0x4b, 0x33, 0x59, 0xbe, 0x66, 0x4f, 0x8b, 0xbe,
  0x1b, 0x01, 0xdc, 0xbd, 0x5c, 0x61, 0xdc, 0x3d, 0x58, 0xfb, 0x92, 0xbc,
  0x97, 0x60, 0x70, 0x3d, 0x4f, 0x86, 0xa8, 0x3e, 0x27, 0xd2, 0x99, 0x3c,
  0x40, 0xd1, 0x7c, 0x3c, 0x06, 0xb3, 0x4e, 0xbd, 0x97, 0x76, 0x6d, 0xbe,
  0x12, 0x7b, 0x22, 0x3d, 0xb1, 0x02, 0xfa, 0xbd, 0x6a, 0x5d, 0x74, 0xbe,
  0xec, 0xa9, 0xec, 0x3e, 0x17, 0x8e, 0x2c, 0xbe, 0x23, 0x4a, 0x1c, 0xbd,
  0x4d, 0x49, 0x38, 0x3d, 0xcd, 0x88, 0x8c, 0x3d, 0x3d, 0x20, 0x36, 0xbe,
  0x55, 0x47, 0x29, 0x3e, 0xf6, 0x0e, 0x22, 0xbe, 0x80, 0x0e, 0xc7, 0x3e,
  0xa5, 0x3c, 0xc4, 0x3c, 0xce, 0x12, 0xeb, 0xbd, 0x25, 0xb7, 0xeb, 0xbd,
  0xbf, 0x8e, 0x07, 0xbe, 0xde, 0x9f, 0x89, 0x3d, 0x06, 0x71, 0x87, 0xbe,
  0x4c, 0x37, 0x90, 0x3d, 0x81, 0x80, 0x9d, 0x3e, 0x91, 0x5e, 0x1c, 0xbe,
  0x6e, 0x14, 0xde, 0xbd, 0x4d, 0xfc, 0x49, 0xbe, 0x9d, 0x23, 0x99, 0x3d,
  0xa1, 0x8a, 0x59, 0xbe, 0x0c, 0xcb, 0xc0, 0x3d, 0x86, 0x74, 0x46, 0xbe,
  0x34, 0xfb, 0x13, 0x3e, 0xa0, 0x4a, 0x14, 0xbe, 0xf4, 0xed, 0x6c, 0x3d,
  0xe7, 0x88, 0x1f, 0xbe, 0x66, 0x02, 0x5c, 0xbe, 0x54, 0xae, 0xf4, 0xbd,
  0x41, 0x5c, 0xc4, 0xbe, 0xc1, 0x71, 0x94, 0x3d, 0x62, 0x02, 0xe2, 0x3e,
  0xc1, 0xfb, 0x4a, 0xbe, 0xe1, 0x05, 0x15, 0xbc, 0x46, 0x1c, 0x51, 0xbe,
  0xf2, 0xed, 0x3b, 0xbe, 0x95, 0xdc, 0xa0, 0xbd, 0x2e, 0x19, 0x55, 0xbe,
  0x56, 0xe7, 0x25, 0xbe, 0x06, 0x5e, 0xf0, 0x3e, 0xfd, 0x7d, 0x2e, 0xbe,
  0x68, 0x68, 0xbb, 0xbd, 0xb7, 0xa1, 0xb6, 0xbd, 0x82, 0x46, 0x5d, 0xbd,
  0x84, 0x66, 0x26, 0xbe, 0xd3, 0x2c, 0xc3, 0xbe, 0xf7, 0x49, 0x83, 0xbc,
  0x5d, 0xb6, 0x17, 0x3f, 0x92, 0xd8, 0x83, 0xbe, 0x37, 0xaa, 0x6f, 0xbe,
  0xb1, 0x61, 0x14, 0xbe, 0x13, 0xa6, 0x5d, 0xbe, 0x9d, 0xf3, 0x21, 0xbf,
  0xa8, 0xe5, 0x0e, 0xbe, 0x09, 0xe3, 0x14, 0xbf, 0x1c, 0x38, 0x60, 0x3d,
  0x72, 0x50, 0x91, 0xbd, 0x87, 0x94, 0x9e, 0xbe, 0x1d, 0x90, 0x24, 0xbe,
  0x76, 0x0a, 0xd1, 0xbc, 0xb4, 0x45, 0x03, 0xbe, 0x3f, 0xd7, 0x08, 0xbd,
  0xcb, 0x45, 0xb0, 0x3c, 0x49, 0x52, 0x2a, 0xbe, 0xb2, 0x0b, 0xfe, 0xbd,
  0x00, 0x08, 0x2a, 0xbe, 0x28, 0x51, 0x70, 0xbe, 0x45, 0x07, 0x0f, 0x3d,
  0x2e, 0x8e, 0xd6, 0xbe, 0x13, 0x63, 0x13, 0xbe, 0x47, 0x23, 0x28, 0xbe,
  0x61, 0x9a, 0x7c, 0xbd, 0xe3, 0xd7, 0x67, 0x3e, 0x09, 0x48, 0x13, 0xbe,
  0x2a, 0x06, 0xc6, 0xbe, 0x52, 0x98, 0x17, 0x3d, 0xfa, 0x84, 0x07, 0x3e,
  0xb9, 0x74, 0x43, 0xbc, 0x6a, 0x6b, 0x92, 0xbd, 0xce, 0x4c, 0x04, 0xbe,
  0x76, 0x24, 0x87, 0xbe, 0x2b, 0x2e, 0xe2, 0xbd, 0xc3, 0x8f, 0xe6, 0x3c,
  0x96, 0xd2, 0x51, 0xbd, 0xc8, 0xed, 0xd5, 0xbe, 0x68, 0xb5, 0x6c, 0xbe,
  0xbc, 0x61, 0x93, 0xbe, 0xf4, 0x98, 0x29, 0xbe, 0x9e, 0x4c, 0xc3, 0x3e,
  0x53, 0x05, 0x21, 0xbe, 0xf7, 0x81, 0x5e, 0xbe, 0x84, 0xa8, 0xd9, 0x3e,
  0x5a, 0xeb, 0x85, 0xbd, 0xf5, 0x2c, 0xae, 0x3c, 0xaa, 0xa7, 0x1a, 0xbd,
  0xb6, 0x49, 0x09, 0xbe, 0x50, 0x02, 0x85, 0xbe, 0x2f, 0x00, 0x7f, 0xbe,
  0x5e, 0x27, 0xe2, 0x3a, 0xf1, 0x48, 0x36, 0x3d, 0x22, 0x14, 0x2a, 0xbe,
  0x58, 0x77, 0x6c, 0xbe, 0x09, 0xe6, 0xb3, 0xbe, 0x24, 0x52, 0x35, 0xbe,
  0xe3, 0x4a, 0x8e, 0x3d, 0xfb, 0x09, 0x07, 0xbe, 0x72, 0xec, 0x74, 0x3d,
  0x93, 0xba, 0x71, 0x3d, 0x53, 0x96, 0xc8, 0x3d, 0x8c, 0xfb, 0x35, 0x3d,
  0xec, 0xd7, 0xb6, 0xbc, 0x85, 0xb1, 0x40, 0xbe, 0x44, 0xa8, 0x86, 0x3d,
  0x55, 0x17, 0x1c, 0x3c, 0xd0, 0xf4, 0xcc, 0xbc, 0x77, 0x1b, 0x24, 0x3e,
  0x4e, 0x53, 0xdc, 0xbe, 0x8e, 0x55, 0xc7, 0xbe, 0x89, 0x1d, 0xb9, 0xbe,
  0x86, 0x16, 0xda, 0xbc, 0x79, 0x1f, 0xeb, 0x3d, 0x2e, 0xc3, 0xb9, 0xbc,
  0x4f, 0x18, 0xbd, 0x3c, 0x82, 0xf5, 0x1c, 0x3e, 0x9b, 0x67, 0x1b, 0xbe,
  0x99, 0xcc, 0x18, 0x3d, 0x2c, 0x75, 0x51, 0x3e, 0xed, 0xba, 0xe0, 0xbd,
  0x27, 0x25, 0x9b, 0xbe, 0xc1, 0x81, 0xa2, 0xbd, 0x19, 0x8a, 0x3c, 0x3e,
  0xe5, 0xdd, 0x2d, 0x3e, 0x69, 0xce, 0xda, 0xbe, 0x80, 0xb9, 0x00, 0xbf,
  0x9f, 0x8a, 0xce, 0xbe, 0x42, 0x30, 0x9e, 0xbe, 0x89, 0x1d, 0xb5, 0x3d,
  0x8e, 0x9e, 0xc1, 0xbe, 0x4f, 0xa1, 0xb6, 0x3e, 0xbf, 0x13, 0x9b, 0x3d,
  0x2a, 0xac, 0x61, 0xbe, 0xd4, 0x4e, 0x71, 0x3b, 0x70, 0x4d, 0xb6, 0x3d,
  0x08, 0x87, 0x7b, 0x3d, 0xb9, 0x8f, 0xa9, 0xbe, 0xc4, 0xa6, 0x1f, 0x3e,
  0x45, 0x91, 0xd2, 0x3d, 0x82, 0xe5, 0xc9, 0xbd, 0x2a, 0x35, 0x48, 0xbe,
  0xf1, 0x30, 0x3e, 0xbe, 0x26, 0x6b, 0x94, 0xbc, 0xd0, 0x49, 0x99, 0xbe,
  0x2e, 0x5c, 0xd4, 0x3d, 0x01, 0x14, 0xaa, 0xbe, 0x7c, 0x2e, 0xe6, 0xbd,
  0x26, 0xaf, 0x9a, 0x3d, 0x02, 0x75, 0x15, 0xbe, 0x6f, 0xa0, 0x31, 0xbc,
  0x09, 0x9d, 0x2a, 0xbe, 0x43, 0xa0, 0x63, 0xbe, 0xad, 0x45, 0x07, 0xbe,
  0xa3, 0x41, 0xb3, 0x3d, 0xe3, 0x48, 0x06, 0x3d, 0xdf, 0x58, 0x51, 0xbe,
  0x46, 0xfe, 0xff, 0xff, 0x10, 0x00, 0x00, 0x00, 0x05, 0x00, 0x00, 0x00,
  0x14, 0x00, 0x00, 0x00, 0x2c, 0x00, 0x00, 0x00, 0x02, 0x00, 0x00, 0x00,
  0x10, 0x00, 0x00, 0x00, 0x70, 0x00, 0x00, 0x00, 0x17, 0x00, 0x00, 0x00,
  0x73, 0x65, 0x71, 0x75, 0x65, 0x6e, 0x74, 0x69, 0x61, 0x6c, 0x2f, 0x64,
  0x65, 0x6e, 0x73, 0x65, 0x2f, 0x4d, 0x61, 0x74, 0x4d, 0x75, 0x6c, 0x00,
  0x34, 0xfe, 0xff, 0xff, 0x2a, 0xff, 0xff, 0xff, 0x04, 0x00, 0x00, 0x00,
  0x08, 0x00, 0x00, 0x00, 0xff, 0xff, 0xff, 0xff, 0x70, 0x00, 0x00, 0x00,
  0x00, 0x00, 0x0e, 0x00, 0x18, 0x00, 0x08, 0x00, 0x07, 0x00, 0x0c, 0x00,
  0x10, 0x00, 0x14, 0x00, 0x0e, 0x00, 0x00, 0x00, 0x00, 0x00, 0x00, 0x02,
  0x10, 0x00, 0x00, 0x00, 0x04, 0x00, 0x00, 0x00, 0x10, 0x00, 0x00, 0x00,
  0x2c, 0x00, 0x00, 0x00, 0x01, 0x00, 0x00, 0x00, 0x02, 0x00, 0x00, 0x00,
  0x18, 0x00, 0x00, 0x00, 0x73, 0x65, 0x71, 0x75, 0x65, 0x6e, 0x74, 0x69,
  0x61, 0x6c, 0x2f, 0x66, 0x6c, 0x61, 0x74, 0x74, 0x65, 0x6e, 0x2f, 0x43,
  0x6f, 0x6e, 0x73, 0x74, 0x00, 0x00, 0x00, 0x00, 0x9c, 0xfe, 0xff, 0xff,
  0x92, 0xff, 0xff, 0xff, 0x04, 0x00, 0x00, 0x00, 0x10, 0x00, 0x00, 0x00,
  0x6b, 0x53, 0x73, 0xc0, 0x7f, 0xf1, 0x8b, 0xc0, 0x70, 0x12, 0x82, 0x3f,
  0xd2, 0x9e, 0xa6, 0x3f, 0x0a, 0xff, 0xff, 0xff, 0x10, 0x00, 0x00, 0x00,
  0x03, 0x00, 0x00, 0x00, 0x10, 0x00, 0x00, 0x00, 0x3c, 0x00, 0x00, 0x00,
  0x01, 0x00, 0x00, 0x00, 0x04, 0x00, 0x00, 0x00, 0x29, 0x00, 0x00, 0x00,
  0x73, 0x65, 0x71, 0x75, 0x65, 0x6e, 0x74, 0x69, 0x61, 0x6c, 0x2f, 0x64,
  0x65, 0x6e, 0x73, 0x65, 0x5f, 0x31, 0x2f, 0x42, 0x69, 0x61, 0x73, 0x41,
  0x64, 0x64, 0x2f, 0x52, 0x65, 0x61, 0x64, 0x56, 0x61, 0x72, 0x69, 0x61,
  0x62, 0x6c, 0x65, 0x4f, 0x70, 0x00, 0x00, 0x00, 0x60, 0xff, 0xff, 0xff,
  0x00, 0x00, 0x06, 0x00, 0x08, 0x00, 0x04, 0x00, 0x06, 0x00, 0x00, 0x00,
  0x04, 0x00, 0x00, 0x00, 0x40, 0x00, 0x00, 0x00, 0xaf, 0xe1, 0x56, 0x3e,
  0x32, 0xf8, 0x5b, 0xbe, 0x69, 0x9a, 0xcb, 0xbf, 0xa2, 0x35, 0x21, 0x40,
  0xe3, 0x9f, 0xf0, 0x3d, 0xa7, 0x58, 0x5e, 0xbe, 0xd8, 0x5e, 0x0c, 0x3e,
  0xca, 0x9d, 0x90, 0x3f, 0xec, 0x9b, 0xa2, 0xbc, 0x81, 0x2e, 0x9a, 0xbf,
  0x89, 0x01, 0x04, 0xc0, 0x9c, 0xb2, 0xe9, 0x3f, 0x8f, 0x94, 0x8b, 0xbf,
  0x21, 0x2d, 0x92, 0x3e, 0x40, 0x1a, 0x41, 0x40, 0x04, 0xce, 0x82, 0xbf,
  0xae, 0xff, 0xff, 0xff, 0x10, 0x00, 0x00, 0x00, 0x02, 0x00, 0x00, 0x00,
  0x10, 0x00, 0x00, 0x00, 0x3c, 0x00, 0x00, 0x00, 0x01, 0x00, 0x00, 0x00,
  0x10, 0x00, 0x00, 0x00, 0x27, 0x00, 0x00, 0x00, 0x73, 0x65, 0x71, 0x75,
  0x65, 0x6e, 0x74, 0x69, 0x61, 0x6c, 0x2f, 0x64, 0x65, 0x6e, 0x73, 0x65,
  0x2f, 0x42, 0x69, 0x61, 0x73, 0x41, 0x64, 0x64, 0x2f, 0x52, 0x65, 0x61,
  0x64, 0x56, 0x61, 0x72, 0x69, 0x61, 0x62, 0x6c, 0x65, 0x4f, 0x70, 0x00,
  0x04, 0x00, 0x06, 0x00, 0x04, 0x00, 0x00, 0x00, 0x00, 0x00, 0x0e, 0x00,
  0x14, 0x00, 0x04, 0x00, 0x00, 0x00, 0x08, 0x00, 0x0c, 0x00, 0x10, 0x00,
  0x0e, 0x00, 0x00, 0x00, 0x10, 0x00, 0x00, 0x00, 0x01, 0x00, 0x00, 0x00,
  0x1c, 0x00, 0x00, 0x00, 0x2c, 0x00, 0x00, 0x00, 0x04, 0x00, 0x00, 0x00,
  0x01, 0x00, 0x00, 0x00, 0x40, 0x00, 0x00, 0x00, 0x03, 0x00, 0x00, 0x00,
  0x01, 0x00, 0x00, 0x00, 0x0c, 0x00, 0x00, 0x00, 0x63, 0x6f, 0x6e, 0x76,
  0x32, 0x64, 0x5f, 0x69, 0x6e, 0x70, 0x75, 0x74, 0x00, 0x00, 0x00, 0x00,
  0xfc, 0xff, 0xff, 0xff, 0x04, 0x00, 0x04, 0x00, 0x04, 0x00, 0x00, 0x00

};


unsigned int model_tflite_len = 12384;// Fill the int in `src/model.cc` here
