#include "magic_wand_model_data.h"


// We need to keep the data array aligned on some architectures.

#ifdef __has_attribute

#define HAVE_ATTRIBUTE(x) __has_attribute(x)

#else

#define HAVE_ATTRIBUTE(x) 0

#endif

#if HAVE_ATTRIBUTE(aligned) || (defined(__GNUC__) && !defined(__clang__))

#define DATA_ALIGN_ATTRIBUTE __attribute__((aligned(4)))

#else

#define DATA_ALIGN_ATTRIBUTE

#endif


const unsigned char g_magic_wand_model_data[] DATA_ALIGN_ATTRIBUTE = {

  
  0x08, 0x00, 0x00, 0x00, 0x54, 0x46, 0x4c, 0x33, 0x62, 0xff, 0xff, 0xff,
  0x03, 0x00, 0x00, 0x00, 0x10, 0x00, 0x00, 0x00, 0x24, 0x00, 0x00, 0x00,
  0x78, 0x00, 0x00, 0x00, 0x24, 0x00, 0x00, 0x00, 0x05, 0x00, 0x00, 0x00,
  0x78, 0x05, 0x00, 0x00, 0xb0, 0x04, 0x00, 0x00, 0xe0, 0x02, 0x00, 0x00,
  0x60, 0x02, 0x00, 0x00, 0x54, 0x01, 0x00, 0x00, 0x01, 0x00, 0x00, 0x00,
  0x78, 0x00, 0x00, 0x00, 0x13, 0x00, 0x00, 0x00, 0xd4, 0x2f, 0x00, 0x00,
  0xd0, 0x2f, 0x00, 0x00, 0xdc, 0x2e, 0x00, 0x00, 0x68, 0x2e, 0x00, 0x00,
  0xfc, 0x2d, 0x00, 0x00, 0xac, 0x11, 0x00, 0x00, 0x98, 0x10, 0x00, 0x00,
  0xbc, 0x0e, 0x00, 0x00, 0x60, 0x06, 0x00, 0x00, 0xfc, 0x05, 0x00, 0x00,
  0x78, 0x05, 0x00, 0x00, 0xa8, 0x2f, 0x00, 0x00, 0xa4, 0x2f, 0x00, 0x00,
  0xa0, 0x2f, 0x00, 0x00, 0x9c, 0x2f, 0x00, 0x00, 0x98, 0x2f, 0x00, 0x00,
  0x94, 0x2f, 0x00, 0x00, 0x90, 0x2f, 0x00, 0x00, 0x8c, 0x2f, 0x00, 0x00,
  0x0f, 0x00, 0x00, 0x00, 0x4d, 0x4c, 0x49, 0x52, 0x20, 0x43, 0x6f, 0x6e,
  0x76, 0x65, 0x72, 0x74, 0x65, 0x64, 0x2e, 0x00, 0x00, 0x00, 0x0e, 0x00,
  0x18, 0x00, 0x04, 0x00, 0x08, 0x00, 0x0c, 0x00, 0x10, 0x00, 0x14, 0x00,
  0x0e, 0x00, 0x00, 0x00, 0x14, 0x00, 0x00, 0x00, 0x5c, 0x00, 0x00, 0x00,
  0x60, 0x00, 0x00, 0x00, 0x64, 0x00, 0x00, 0x00, 0x84, 0x00, 0x00, 0x00,
  0x12, 0x00, 0x00, 0x00, 0x04, 0x2f, 0x00, 0x00, 0xa0, 0x2e, 0x00, 0x00,
  0xf8, 0x2d, 0x00, 0x00, 0x98, 0x2d, 0x00, 0x00, 0x30, 0x2d, 0x00, 0x00,
  0xdc, 0x10, 0x00, 0x00, 0xc0, 0x0f, 0x00, 0x00, 0xe4, 0x0d, 0x00, 0x00,
  0xa0, 0x05, 0x00, 0x00, 0x3c, 0x05, 0x00, 0x00, 0xb0, 0x04, 0x00, 0x00,
  0xe8, 0x03, 0x00, 0x00, 0x38, 0x03, 0x00, 0x00, 0xa4, 0x02, 0x00, 0x00,
  0x10, 0x02, 0x00, 0x00, 0x90, 0x01, 0x00, 0x00, 0xfc, 0x00, 0x00, 0x00,
  0x80, 0x00, 0x00, 0x00, 0x01, 0x00, 0x00, 0x00, 0x00, 0x00, 0x00, 0x00,
  0x01, 0x00, 0x00, 0x00, 0x11, 0x00, 0x00, 0x00, 0x08, 0x00, 0x00, 0x00,
  0x1c, 0x04, 0x00, 0x00, 0x58, 0x03, 0x00, 0x00, 0xc8, 0x02, 0x00, 0x00,
  0x24, 0x02, 0x00, 0x00, 0xac, 0x01, 0x00, 0x00, 0x10, 0x01, 0x00, 0x00,
  0x94, 0x00, 0x00, 0x00, 0x10, 0x00, 0x00, 0x00, 0x04, 0x00, 0x00, 0x00,
  0x6d, 0x61, 0x69, 0x6e, 0x00, 0x00, 0x00, 0x00, 0x8e, 0xff, 0xff, 0xff,
  0x00, 0x00, 0x00, 0x09, 0x04, 0x00, 0x00, 0x00, 0x1c, 0x00, 0x00, 0x00,
  0x10, 0x00, 0x00, 0x00, 0x04, 0x00, 0x00, 0x00, 0x4e, 0xd2, 0xff, 0xff,
  0x00, 0x00, 0x80, 0x3f, 0x01, 0x00, 0x00, 0x00, 0x11, 0x00, 0x00, 0x00,
  0x01, 0x00, 0x00, 0x00, 0x10, 0x00, 0x00, 0x00, 0xf6, 0xfb, 0xff, 0xff,
  0x00, 0x00, 0x00, 0x19, 0x01, 0x00, 0x00, 0x00, 0xce, 0xd1, 0xff, 0xff,
  0x10, 0x00, 0x00, 0x00, 0x12, 0x00, 0x00, 0x00, 0x14, 0x00, 0x00, 0x00,
  0x20, 0x00, 0x00, 0x00, 0x02, 0x00, 0x00, 0x00, 0x01, 0x00, 0x00, 0x00,
  0x03, 0x00, 0x00, 0x00, 0x08, 0x00, 0x00, 0x00, 0x49, 0x64, 0x65, 0x6e,
  0x74, 0x69, 0x74, 0x79, 0x00, 0x00, 0x00, 0x00, 0x08, 0xd2, 0xff, 0xff,
  0x00, 0x00, 0x0e, 0x00, 0x18, 0x00, 0x08, 0x00, 0x0c, 0x00, 0x10, 0x00,
  0x07, 0x00, 0x14, 0x00, 0x0e, 0x00, 0x00, 0x00, 0x00, 0x00, 0x00, 0x08,
  0x03, 0x00, 0x00, 0x00, 0x18, 0x00, 0x00, 0x00, 0x0c, 0x00, 0x00, 0x00,
  0x04, 0x00, 0x00, 0x00, 0xdc, 0xd1, 0xff, 0xff, 0x01, 0x00, 0x00, 0x00,
  0x10, 0x00, 0x00, 0x00, 0x03, 0x00, 0x00, 0x00, 0x0f, 0x00, 0x00, 0x00,
  0x05, 0x00, 0x00, 0x00, 0x02, 0x00, 0x00, 0x00, 0x46, 0xd2, 0xff, 0xff,
  0x10, 0x00, 0x00, 0x00, 0x11, 0x00, 0x00, 0x00, 0x14, 0x00, 0x00, 0x00,
  0x30, 0x00, 0x00, 0x00, 0x02, 0x00, 0x00, 0x00, 0x01, 0x00, 0x00, 0x00,
  0x03, 0x00, 0x00, 0x00, 0x1a, 0x00, 0x00, 0x00, 0x73, 0x65, 0x71, 0x75,
  0x65, 0x6e, 0x74, 0x69, 0x61, 0x6c, 0x2f, 0x64, 0x65, 0x6e, 0x73, 0x65,
  0x5f, 0x31, 0x2f, 0x42, 0x69, 0x61, 0x73, 0x41, 0x64, 0x64, 0x00, 0x00,
  0x38, 0xd2, 0xff, 0xff, 0xd6, 0xfd, 0xff, 0xff, 0x00, 0x00, 0x00, 0x08,
  0x03, 0x00, 0x00, 0x00, 0x24, 0x00, 0x00, 0x00, 0x18, 0x00, 0x00, 0x00,
  0x0c, 0x00, 0x00, 0x00, 0x00, 0x00, 0x06, 0x00, 0x08, 0x00, 0x07, 0x00,
  0x06, 0x00, 0x00, 0x00, 0x00, 0x00, 0x00, 0x01, 0x01, 0x00, 0x00, 0x00,
  0x0f, 0x00, 0x00, 0x00, 0x03, 0x00, 0x00, 0x00, 0x0e, 0x00, 0x00, 0x00,
  0x04, 0x00, 0x00, 0x00, 0x01, 0x00, 0x00, 0x00, 0xfe, 0xfc, 0xff, 0xff,
  0x00, 0x00, 0x00, 0x09, 0x01, 0x00, 0x00, 0x00, 0xd6, 0xd2, 0xff, 0xff,
  0x10, 0x00, 0x00, 0x00, 0x10, 0x00, 0x00, 0x00, 0x14, 0x00, 0x00, 0x00,
  0x2c, 0x00, 0x00, 0x00, 0x02, 0x00, 0x00, 0x00, 0x01, 0x00, 0x00, 0x00,
  0x10, 0x00, 0x00, 0x00, 0x15, 0x00, 0x00, 0x00, 0x73, 0x65, 0x71, 0x75,
  0x65, 0x6e, 0x74, 0x69, 0x61, 0x6c, 0x2f, 0x64, 0x65, 0x6e, 0x73, 0x65,
  0x2f, 0x52, 0x65, 0x6c, 0x75, 0x00, 0x00, 0x00, 0x1c, 0xd3, 0xff, 0xff,
  0x00, 0x00, 0x0a, 0x00, 0x10, 0x00, 0x04, 0x00, 0x08, 0x00, 0x0c, 0x00,
  0x0a, 0x00, 0x00, 0x00, 0x02, 0x00, 0x00, 0x00, 0x10, 0x00, 0x00, 0x00,
  0x04, 0x00, 0x00, 0x00, 0x01, 0x00, 0x00, 0x00, 0x0e, 0x00, 0x00, 0x00,
  0x02, 0x00, 0x00, 0x00, 0x0d, 0x00, 0x00, 0x00, 0x03, 0x00, 0x00, 0x00,
  0x7a, 0xfd, 0xff, 0xff, 0x00, 0x00, 0x00, 0x16, 0x01, 0x00, 0x00, 0x00,
  0x52, 0xd3, 0xff, 0xff, 0x10, 0x00, 0x00, 0x00, 0x0f, 0x00, 0x00, 0x00,
  0x14, 0x00, 0x00, 0x00, 0x30, 0x00, 0x00, 0x00, 0x02, 0x00, 0x00, 0x00,
  0x01, 0x00, 0x00, 0x00, 0x70, 0x00, 0x00, 0x00, 0x1a, 0x00, 0x00, 0x00,
  0x73, 0x65, 0x71, 0x75, 0x65, 0x6e, 0x74, 0x69, 0x61, 0x6c, 0x2f, 0x66,
  0x6c, 0x61, 0x74, 0x74, 0x65, 0x6e, 0x2f, 0x52, 0x65, 0x73, 0x68, 0x61,
  0x70, 0x65, 0x00, 0x00, 0x44, 0xd3, 0xff, 0xff, 0xe2, 0xfe, 0xff, 0xff,
  0x00, 0x00, 0x00, 0x05, 0x01, 0x00, 0x00, 0x00, 0x38, 0x00, 0x00, 0x00,
  0x2c, 0x00, 0x00, 0x00, 0x14, 0x00, 0x00, 0x00, 0x00, 0x00, 0x0e, 0x00,
  0x14, 0x00, 0x00, 0x00, 0x10, 0x00, 0x0c, 0x00, 0x08, 0x00, 0x04, 0x00,
  0x0e, 0x00, 0x00, 0x00, 0x03, 0x00, 0x00, 0x00, 0x01, 0x00, 0x00, 0x00,
  0x03, 0x00, 0x00, 0x00, 0x01, 0x00, 0x00, 0x00, 0x01, 0x00, 0x00, 0x00,
  0x0d, 0x00, 0x00, 0x00, 0x01, 0x00, 0x00, 0x00, 0x0c, 0x00, 0x00, 0x00,
  0xe2, 0xd3, 0xff, 0xff, 0x10, 0x00, 0x00, 0x00, 0x0e, 0x00, 0x00, 0x00,
  0x1c, 0x00, 0x00, 0x00, 0x40, 0x00, 0x00, 0x00, 0x04, 0x00, 0x00, 0x00,
  0x01, 0x00, 0x00, 0x00, 0x07, 0x00, 0x00, 0x00, 0x01, 0x00, 0x00, 0x00,
  0x10, 0x00, 0x00, 0x00, 0x22, 0x00, 0x00, 0x00, 0x73, 0x65, 0x71, 0x75,
  0x65, 0x6e, 0x74, 0x69, 0x61, 0x6c, 0x2f, 0x6d, 0x61, 0x78, 0x5f, 0x70,
  0x6f, 0x6f, 0x6c, 0x69, 0x6e, 0x67, 0x32, 0x64, 0x5f, 0x31, 0x2f, 0x4d,
  0x61, 0x78, 0x50, 0x6f, 0x6f, 0x6c, 0x00, 0x00, 0xe4, 0xd3, 0xff, 0xff,
  0xc2, 0xfe, 0xff, 0xff, 0x00, 0x00, 0x00, 0x01, 0x24, 0x00, 0x00, 0x00,
  0x18, 0x00, 0x00, 0x00, 0x04, 0x00, 0x00, 0x00, 0xb4, 0xfe, 0xff, 0xff,
  0x01, 0x00, 0x00, 0x00, 0x01, 0x00, 0x00, 0x00, 0x00, 0x00, 0x00, 0x01,
  0x01, 0x00, 0x00, 0x00, 0x0c, 0x00, 0x00, 0x00, 0x03, 0x00, 0x00, 0x00,
  0x0b, 0x00, 0x00, 0x00, 0x07, 0x00, 0x00, 0x00, 0x09, 0x00, 0x00, 0x00,
  0x72, 0xd4, 0xff, 0xff, 0x10, 0x00, 0x00, 0x00, 0x0d, 0x00, 0x00, 0x00,
  0x1c, 0x00, 0x00, 0x00, 0x2c, 0x00, 0x00, 0x00, 0x04, 0x00, 0x00, 0x00,
  0x01, 0x00, 0x00, 0x00, 0x15, 0x00, 0x00, 0x00, 0x01, 0x00, 0x00, 0x00,
  0x10, 0x00, 0x00, 0x00, 0x0c, 0x00, 0x00, 0x00, 0x74, 0x66, 0x6c, 0x2e,
  0x63, 0x6f, 0x6e, 0x76, 0x5f, 0x32, 0x64, 0x31, 0x00, 0x00, 0x00, 0x00,
  0xb8, 0xd4, 0xff, 0xff, 0x00, 0x00, 0x0e, 0x00, 0x1a, 0x00, 0x08, 0x00,
  0x0c, 0x00, 0x10, 0x00, 0x07, 0x00, 0x14, 0x00, 0x0e, 0x00, 0x00, 0x00,
  0x00, 0x00, 0x00, 0x05, 0x01, 0x00, 0x00, 0x00, 0x3c, 0x00, 0x00, 0x00,
  0x30, 0x00, 0x00, 0x00, 0x14, 0x00, 0x00, 0x00, 0x00, 0x00, 0x0e, 0x00,
  0x18, 0x00, 0x17, 0x00, 0x10, 0x00, 0x0c, 0x00, 0x08, 0x00, 0x04, 0x00,
  0x0e, 0x00, 0x00, 0x00, 0x03, 0x00, 0x00, 0x00, 0x03, 0x00, 0x00, 0x00,
  0x03, 0x00, 0x00, 0x00, 0x03, 0x00, 0x00, 0x00, 0x00, 0x00, 0x00, 0x01,
  0x01, 0x00, 0x00, 0x00, 0x0b, 0x00, 0x00, 0x00, 0x01, 0x00, 0x00, 0x00,
  0x0a, 0x00, 0x00, 0x00, 0x46, 0xff, 0xff, 0xff, 0x00, 0x00, 0x00, 0x11,
  0x01, 0x00, 0x00, 0x00, 0x1e, 0xd5, 0xff, 0xff, 0x10, 0x00, 0x00, 0x00,
  0x0c, 0x00, 0x00, 0x00, 0x1c, 0x00, 0x00, 0x00, 0x40, 0x00, 0x00, 0x00,
  0x04, 0x00, 0x00, 0x00, 0x01, 0x00, 0x00, 0x00, 0x15, 0x00, 0x00, 0x00,
  0x01, 0x00, 0x00, 0x00, 0x08, 0x00, 0x00, 0x00, 0x20, 0x00, 0x00, 0x00,
  0x73, 0x65, 0x71, 0x75, 0x65, 0x6e, 0x74, 0x69, 0x61, 0x6c, 0x2f, 0x6d,
  0x61, 0x78, 0x5f, 0x70, 0x6f, 0x6f, 0x6c, 0x69, 0x6e, 0x67, 0x32, 0x64,
  0x2f, 0x4d, 0x61, 0x78, 0x50, 0x6f, 0x6f, 0x6c, 0x00, 0x00, 0x00, 0x00,
  0x78, 0xd5, 0xff, 0xff, 0x00, 0x00, 0x0e, 0x00, 0x14, 0x00, 0x00, 0x00,
  0x08, 0x00, 0x0c, 0x00, 0x07, 0x00, 0x10, 0x00, 0x0e, 0x00, 0x00, 0x00,
  0x00, 0x00, 0x00, 0x01, 0x30, 0x00, 0x00, 0x00, 0x24, 0x00, 0x00, 0x00,
  0x10, 0x00, 0x00, 0x00, 0x0c, 0x00, 0x10, 0x00, 0x00, 0x00, 0x04, 0x00,
  0x08, 0x00, 0x0f, 0x00, 0x0c, 0x00, 0x00, 0x00, 0x01, 0x00, 0x00, 0x00,
  0x01, 0x00, 0x00, 0x00, 0x00, 0x00, 0x00, 0x01, 0x01, 0x00, 0x00, 0x00,
  0x0a, 0x00, 0x00, 0x00, 0x03, 0x00, 0x00, 0x00, 0x00, 0x00, 0x00, 0x00,
  0x06, 0x00, 0x00, 0x00, 0x08, 0x00, 0x00, 0x00, 0x00, 0x00, 0x0a, 0x00,
  0x0c, 0x00, 0x07, 0x00, 0x00, 0x00, 0x08, 0x00, 0x0a, 0x00, 0x00, 0x00,
  0x00, 0x00, 0x00, 0x03, 0x01, 0x00, 0x00, 0x00, 0xe2, 0xd5, 0xff, 0xff,
  0x10, 0x00, 0x00, 0x00, 0x0b, 0x00, 0x00, 0x00, 0x1c, 0x00, 0x00, 0x00,
  0x28, 0x00, 0x00, 0x00, 0x04, 0x00, 0x00, 0x00, 0x01, 0x00, 0x00, 0x00,
  0x40, 0x00, 0x00, 0x00, 0x03, 0x00, 0x00, 0x00, 0x08, 0x00, 0x00, 0x00,
  0x0b, 0x00, 0x00, 0x00, 0x74, 0x66, 0x6c, 0x2e, 0x63, 0x6f, 0x6e, 0x76,
  0x5f, 0x32, 0x64, 0x00, 0xcc, 0xd5, 0xff, 0xff, 0xc2, 0xd6, 0xff, 0xff,
  0x04, 0x00, 0x00, 0x00, 0x40, 0x00, 0x00, 0x00, 0xd1, 0xc6, 0xe2, 0xbe,
  0x16, 0x12, 0xa7, 0xbd, 0xdd, 0x8b, 0x61, 0x3e, 0x5f, 0x5b, 0x9f, 0x3d,
  0x1c, 0xa8, 0xc7, 0xbd, 0xe7, 0x8e, 0x8f, 0x3d, 0x60, 0xe2, 0x8f, 0xbd,
  0x82, 0x3b, 0xed, 0xbd, 0x74, 0xb9, 0x43, 0xbd, 0x30, 0x16, 0x94, 0x3f,
  0x87, 0x44, 0x65, 0xbd, 0xa9, 0x61, 0x00, 0xbc, 0x35, 0x7a, 0x3b, 0xbf,
  0xd0, 0xda, 0x04, 0xbf, 0x85, 0xc2, 0x90, 0x3f, 0xc1, 0x56, 0xda, 0x3b,
  0x6a, 0xd6, 0xff, 0xff, 0x10, 0x00, 0x00, 0x00, 0x0a, 0x00, 0x00, 0x00,
  0x10, 0x00, 0x00, 0x00, 0x20, 0x00, 0x00, 0x00, 0x01, 0x00, 0x00, 0x00,
  0x10, 0x00, 0x00, 0x00, 0x0d, 0x00, 0x00, 0x00, 0x73, 0x74, 0x64, 0x2e,
  0x63, 0x6f, 0x6e, 0x73, 0x74, 0x61, 0x6e, 0x74, 0x31, 0x00, 0x00, 0x00,
  0x4c, 0xd6, 0xff, 0xff, 0x42, 0xd7, 0xff, 0xff, 0x04, 0x00, 0x00, 0x00,
  0x20, 0x00, 0x00, 0x00, 0x7d, 0x30, 0x28, 0xbf, 0x29, 0xa0, 0xff, 0xbe,
  0xf2, 0x99, 0x2d, 0xbf, 0x82, 0xca, 0x46, 0xbf, 0x26, 0x2a, 0x30, 0xbf,
  0x0f, 0x2c, 0xa4, 0xbd, 0x73, 0xc5, 0xf3, 0xbe, 0xd5, 0x12, 0x0e, 0xbf,
  0xca, 0xd6, 0xff, 0xff, 0x10, 0x00, 0x00, 0x00, 0x09, 0x00, 0x00, 0x00,
  0x10, 0x00, 0x00, 0x00, 0x20, 0x00, 0x00, 0x00, 0x01, 0x00, 0x00, 0x00,
  0x08, 0x00, 0x00, 0x00, 0x0c, 0x00, 0x00, 0x00, 0x73, 0x74, 0x64, 0x2e,
  0x63, 0x6f, 0x6e, 0x73, 0x74, 0x61, 0x6e, 0x74, 0x00, 0x00, 0x00, 0x00,
  0xac, 0xd6, 0xff, 0xff, 0xa2, 0xd7, 0xff, 0xff, 0x04, 0x00, 0x00, 0x00,
  0x00, 0x08, 0x00, 0x00, 0x87, 0x12, 0x32, 0xbf, 0x7c, 0xa7, 0xa4, 0xbd,
  0xb4, 0x79, 0xfd, 0xbe, 0xed, 0x39, 0xd4, 0xb9, 0x22, 0xcc, 0x21, 0xbf,
  0x22, 0x35, 0x94, 0xbe, 0x1f, 0xf2, 0xcf, 0xbe, 0x24, 0x0b, 0x5e, 0xbf,
  0x24, 0xa3, 0x36, 0x3d, 0x2b, 0xde, 0xbb, 0xbd, 0x30, 0x09, 0x70, 0xbe,
  0x70, 0xb3, 0x1a, 0xbd, 0x1e, 0x57, 0xb5, 0xbe, 0x08, 0xa9, 0x19, 0x3d,
  0xa9, 0xe4, 0xae, 0x3e, 0x4b, 0xdf, 0xab, 0xbe, 0xcc, 0x37, 0x97, 0xbd,
  0xd9, 0x1d, 0x65, 0x3e, 0xb7, 0x68, 0x7b, 0xbe, 0x99, 0xc2, 0x63, 0x3e,
  0x8c, 0x84, 0x2a, 0xbe, 0x0b, 0xc3, 0x2f, 0xbe, 0x19, 0x6c, 0xa5, 0xbc,
  0x3f, 0x8b, 0x9a, 0xbe, 0xf7, 0xc0, 0x6a, 0x3e, 0x63, 0xb3, 0xf9, 0x3c,
  0x53, 0xba, 0xbe, 0x3d, 0x30, 0x51, 0x67, 0x3e, 0xb8, 0xd6, 0xd5, 0xbd,
  0xad, 0x19, 0x15, 0x3c, 0xc3, 0x7b, 0x8d, 0x3e, 0x89, 0x7f, 0xb9, 0xbe,
  0x0b, 0x6b, 0x91, 0xbd, 0x86, 0x2b, 0xa4, 0xbe, 0x72, 0xbf, 0x2a, 0x3e,
  0x46, 0x42, 0x0b, 0xbe, 0x69, 0xd4, 0x5d, 0x3e, 0xf3, 0xda, 0x18, 0xbd,
  0x38, 0x2d, 0x58, 0x3e, 0x68, 0xbd, 0x57, 0x3e, 0xdc, 0x08, 0x76, 0x3d,
  0x81, 0x77, 0x2a, 0xbf, 0x23, 0x75, 0x05, 0x3e, 0xc2, 0x32, 0x1a, 0x3e,
  0x6a, 0x33, 0x65, 0x3c, 0xbd, 0xcd, 0xbf, 0xbe, 0xda, 0xc0, 0x81, 0xbe,
  0x68, 0xeb, 0x0f, 0x3d, 0xa9, 0xf1, 0x48, 0xbe, 0x04, 0x1e, 0x01, 0xbf,
  0xbe, 0xbc, 0x82, 0xbe, 0x5e, 0x3d, 0xea, 0x3d, 0xb5, 0x4c, 0xcd, 0xbe,
  0x59, 0xf3, 0x9f, 0xbe, 0x20, 0x4c, 0xa7, 0xbe, 0x77, 0xcf, 0xd0, 0x3c,
  0xd6, 0xce, 0xce, 0xbd, 0x1b, 0x16, 0x8e, 0xbd, 0xd7, 0x40, 0x67, 0xbd,
  0x52, 0xd5, 0xee, 0xbe, 0x55, 0xea, 0x74, 0xbe, 0xfd, 0x2a, 0x0d, 0xbe,
  0x93, 0x1a, 0xb2, 0xbd, 0x21, 0x2e, 0xab, 0xbe, 0x9d, 0x7e, 0xc3, 0x3c,
  0x1b, 0x76, 0x31, 0x3e, 0xde, 0x69, 0x46, 0x3e, 0xea, 0x63, 0xa7, 0xbe,
  0x69, 0x6f, 0x94, 0x3d, 0x57, 0x97, 0x98, 0xb8, 0xc4, 0x55, 0x3e, 0x3e,
  0x3a, 0x34, 0x7e, 0xbd, 0xee, 0x77, 0xae, 0x3c, 0x91, 0x60, 0x60, 0x3b,
  0x4e, 0x1f, 0x43, 0x3e, 0xf5, 0x22, 0xf9, 0xbe, 0x2e, 0xcc, 0xf2, 0xbd,
  0x67, 0x11, 0x6c, 0x3e, 0x6b, 0x11, 0x6c, 0x3e, 0x66, 0x55, 0x48, 0x3e,
  0xc0, 0xf7, 0x21, 0x3e, 0xf2, 0x73, 0x04, 0x3d, 0x21, 0x16, 0x7c, 0xbe,
  0x4e, 0xc7, 0xc9, 0xbe, 0x0f, 0x79, 0x1f, 0xbe, 0x1d, 0xec, 0xa2, 0x3e,
  0x3e, 0x68, 0x99, 0x3d, 0x11, 0x3b, 0xdb, 0xbc, 0xf0, 0x6f, 0x52, 0x3e,
  0x43, 0xad, 0x94, 0xbd, 0x19, 0xd7, 0x6d, 0xbe, 0xa5, 0x2d, 0xbb, 0xbe,
  0xaf, 0xf3, 0x9c, 0xbd, 0x1b, 0x51, 0xed, 0x3e, 0xdf, 0x84, 0xd5, 0x3d,
  0x53, 0x35, 0x5b, 0x3d, 0x49, 0x7a, 0x21, 0xbc, 0x9a, 0x8f, 0x51, 0xbd,
  0x2b, 0x98, 0x75, 0xbe, 0xfc, 0x03, 0xea, 0xbe, 0x77, 0x3b, 0x4a, 0xbe,
  0x7c, 0xd0, 0x1a, 0xbe, 0x67, 0x8d, 0x9a, 0xbe, 0x86, 0xd9, 0x1f, 0xbe,
  0x13, 0xfa, 0x0b, 0x3d, 0x9d, 0x74, 0x34, 0x3e, 0x3c, 0xcd, 0xb5, 0x3e,
  0xeb, 0xd5, 0xc1, 0xbe, 0x65, 0xc8, 0x6b, 0x3e, 0x60, 0xed, 0x8b, 0x3e,
  0x59, 0xce, 0x9b, 0xbe, 0x52, 0xd2, 0xe7, 0xbc, 0x2d, 0xd1, 0x3b, 0x3e,
  0xf5, 0xef, 0x9a, 0xbd, 0xcc, 0x95, 0x34, 0x3e, 0x27, 0x81, 0xb7, 0xbe,
  0xc9, 0xe7, 0xef, 0xbd, 0xa7, 0x5f, 0x98, 0xbd, 0x87, 0x8f, 0x2f, 0xbe,
  0xcd, 0xa5, 0x39, 0x3e, 0x26, 0x9c, 0x90, 0x3e, 0xe7, 0x15, 0xb8, 0xbd,
  0x9c, 0x09, 0x87, 0xbc, 0xf5, 0xee, 0x45, 0xbf, 0x3c, 0xfd, 0xbc, 0x3e,
  0x85, 0xe8, 0x3d, 0x3e, 0x74, 0xa6, 0x76, 0x3d, 0xf1, 0xb1, 0x91, 0x3d,
  0x8e, 0x72, 0x5d, 0xbe, 0x7b, 0x81, 0x99, 0xbe, 0xdc, 0xee, 0x9e, 0xbe,
  0xff, 0xb0, 0xc8, 0xbc, 0x18, 0x3c, 0xeb, 0x3a, 0xbe, 0x16, 0x0c, 0x3f,
  0x38, 0x75, 0xe5, 0x3c, 0x8f, 0xf7, 0x90, 0xbd, 0x13, 0x35, 0xdd, 0x3c,
  0x88, 0x37, 0x6f, 0xbe, 0x11, 0x6e, 0xb6, 0xbe, 0x53, 0x25, 0xb6, 0x3d,
  0xca, 0xbf, 0xc6, 0xbd, 0xda, 0x47, 0x1b, 0x3f, 0x27, 0x5c, 0x04, 0xbe,
  0x97, 0x10, 0xac, 0xbd, 0xa0, 0x9d, 0x97, 0x3e, 0xd3, 0x1c, 0xa9, 0xbe,
  0x79, 0xc4, 0x0f, 0x3e, 0x73, 0x99, 0xae, 0x3d, 0x7c, 0xe1, 0x76, 0xbd,
  0x05, 0x89, 0x01, 0xbf, 0x4f, 0x9e, 0x99, 0xbc, 0x16, 0xe1, 0x28, 0xbd,
  0x7c, 0x56, 0xda, 0x3c, 0x32, 0xae, 0x1a, 0xbe, 0x18, 0xa9, 0x3d, 0xbe,
  0x8a, 0xcc, 0x3e, 0xbe, 0x7d, 0x91, 0x25, 0x3d, 0x43, 0x30, 0x94, 0xbe,
  0x6c, 0xdb, 0x09, 0xbe, 0x97, 0xf8, 0x88, 0x3e, 0x80, 0x81, 0x4a, 0x3e,
  0x78, 0xab, 0x05, 0xbc, 0x0f, 0xfb, 0xa2, 0x3c, 0xd6, 0xd0, 0x7f, 0xbe,
  0x89, 0xbd, 0x41, 0x3e, 0x65, 0x48, 0x33, 0xbe, 0xf0, 0x5f, 0x89, 0xbe,
  0xa7, 0xeb, 0xa7, 0x3c, 0x52, 0xff, 0x83, 0x3e, 0xe1, 0xcf, 0x43, 0x3e,
  0xf9, 0x3c, 0x0e, 0x3e, 0x98, 0x48, 0x0a, 0xbf, 0x86, 0xd2, 0x8f, 0x3d,
  0xc2, 0xa3, 0x57, 0x3e, 0xea, 0x38, 0x80, 0x3e, 0xba, 0xe1, 0x9a, 0xbd,
  0x98, 0x21, 0x17, 0xbd, 0x7b, 0x9a, 0x14, 0xbe, 0xee, 0xbe, 0x15, 0xbe,
  0x4b, 0x69, 0xfe, 0xbd, 0x48, 0x63, 0xd5, 0xbe, 0x8c, 0x09, 0xd6, 0x3e,
  0xdc, 0x88, 0xf3, 0x3d, 0x92, 0x47, 0x8a, 0xbe, 0xdb, 0x51, 0xd1, 0x3c,
  0x26, 0x5a, 0xba, 0xbc, 0x77, 0xdf, 0xdb, 0x3d, 0x0f, 0xe2, 0xe9, 0xbd,
  0x83, 0x83, 0x02, 0xbf, 0xb3, 0xfc, 0xdf, 0x3e, 0x85, 0xec, 0xf0, 0x3d,
  0xe0, 0xc1, 0x83, 0xbe, 0xf5, 0x93, 0x2a, 0x3d, 0xa3, 0xed, 0x73, 0xbe,
  0x49, 0xe5, 0x88, 0xbe, 0x21, 0xd3, 0x12, 0x3d, 0x8a, 0x53, 0x05, 0xbd,
  0x13, 0xde, 0x18, 0x3e, 0x52, 0x56, 0x2c, 0x3d, 0x23, 0xa1, 0x96, 0xbe,
  0xb0, 0x4e, 0x08, 0xbd, 0xef, 0xae, 0x0d, 0xbe, 0xe0, 0xa1, 0xf4, 0x3d,
  0x0b, 0x67, 0xfc, 0xbb, 0x1f, 0xca, 0x98, 0xbe, 0xec, 0xc7, 0x4e, 0x3c,
  0xd8, 0x68, 0x03, 0x3d, 0x2f, 0xbe, 0x1b, 0xbe, 0x07, 0xc9, 0xc8, 0x3d,
  0x69, 0x57, 0x32, 0x3c, 0xfd, 0x77, 0x5f, 0xbd, 0x48, 0x24, 0x1b, 0xbe,
  0x7a, 0x21, 0xd1, 0xbd, 0xb1, 0x57, 0xbd, 0x3e, 0x6c, 0x70, 0x80, 0x3e,
  0xe2, 0x85, 0x54, 0xbe, 0x3f, 0x4a, 0x1e, 0xbd, 0xd8, 0x46, 0x6d, 0xbe,
  0xfa, 0x92, 0x8d, 0xbd, 0xf1, 0x5e, 0x15, 0xbe, 0x44, 0x06, 0x23, 0x3e,
  0xc8, 0x4f, 0x05, 0x3f, 0x52, 0xf7, 0xf6, 0x3d, 0x0a, 0x5f, 0x72, 0xbd,
  0xa3, 0x36, 0x63, 0xbc, 0xd1, 0x31, 0xe7, 0xbe, 0x1c, 0xfb, 0x89, 0x3e,
  0x81, 0xc1, 0xa7, 0x3c, 0x6a, 0x34, 0xaf, 0xbb, 0xb4, 0x2a, 0xd9, 0x3e,
  0xb6, 0x85, 0xba, 0xbe, 0xaf, 0x78, 0x2b, 0x3a, 0x4e, 0xec, 0xa2, 0xbe,
  0x31, 0x8f, 0x6d, 0xbe, 0xd1, 0x3d, 0xcb, 0xbe, 0x9e, 0x57, 0x59, 0x3d,
  0xed, 0xbd, 0x4f, 0xbd, 0xd5, 0x58, 0x38, 0x3c, 0x22, 0x80, 0xa5, 0x3c,
  0xc1, 0x1c, 0x6b, 0xbe, 0xe9, 0x91, 0x19, 0xbe, 0xbb, 0xf8, 0x7f, 0xbe,
  0xab, 0x3e, 0x99, 0xbb, 0x55, 0x76, 0x99, 0xbd, 0x1d, 0xa1, 0xeb, 0xbd,
  0x18, 0xe9, 0x96, 0x3d, 0x02, 0xab, 0x2b, 0x3d, 0x34, 0xca, 0x8b, 0xbd,
  0x88, 0xdc, 0xfb, 0xbd, 0xc6, 0xab, 0x5b, 0xbe, 0x31, 0xa7, 0x34, 0x3e,
  0x08, 0x60, 0x14, 0xbb, 0x36, 0x7c, 0x05, 0x3e, 0x7e, 0x7d, 0x10, 0x3f,
  0x64, 0xe1, 0xb8, 0x3c, 0xc5, 0xaf, 0x9f, 0x3e, 0x46, 0xf3, 0x67, 0xbe,
  0x7c, 0x41, 0x88, 0x3c, 0x54, 0xa8, 0xc7, 0xbd, 0xfa, 0xce, 0xf8, 0xbe,
  0x7d, 0x7b, 0x56, 0xbe, 0x6d, 0xbe, 0x3d, 0xbf, 0x18, 0x31, 0x1c, 0xbf,
  0x37, 0x1d, 0x39, 0xbd, 0x19, 0x5a, 0x85, 0x3e, 0xce, 0xc1, 0xa0, 0x3e,
  0x7e, 0xf4, 0x55, 0xbe, 0x7d, 0xdd, 0x41, 0x3e, 0xb7, 0x28, 0x23, 0xbd,
  0x17, 0x6c, 0x9e, 0x3d, 0x52, 0xa5, 0xb9, 0x3e, 0x53, 0x3e, 0x79, 0xbd,
  0xda, 0x48, 0x53, 0xbe, 0x4c, 0x86, 0xae, 0xbd, 0x92, 0x0c, 0xc6, 0xbb,
  0x69, 0xb7, 0x9e, 0x3d, 0xdb, 0x55, 0xf6, 0xbd, 0x88, 0xd0, 0x08, 0x3e,
  0xf2, 0x22, 0x58, 0xbe, 0x6c, 0xab, 0x17, 0xbe, 0x12, 0x5c, 0x25, 0xbe,
  0x6e, 0xbf, 0x96, 0x3d, 0x9e, 0x16, 0xa0, 0x3d, 0x05, 0x14, 0x3d, 0xbd,
  0x64, 0x74, 0x01, 0xbe, 0xf0, 0xba, 0xa7, 0x3d, 0xdb, 0xc4, 0x89, 0xbe,
  0xa6, 0xa0, 0xda, 0xbd, 0x45, 0xe6, 0xf7, 0xbe, 0x6e, 0xd8, 0xb8, 0xbe,
  0xa7, 0xd5, 0xce, 0xbe, 0x78, 0xdf, 0xb4, 0x3e, 0x33, 0x7a, 0x64, 0xbe,
  0x3c, 0x71, 0x6e, 0x3e, 0x2d, 0x9f, 0xc5, 0xbd, 0x10, 0x11, 0x5d, 0xbe,
  0xeb, 0xdd, 0x0f, 0x3e, 0x48, 0x9b, 0xa8, 0xbe, 0xac, 0x68, 0x8d, 0x3e,
  0x0d, 0x95, 0xc3, 0x3b, 0x71, 0x3c, 0xd6, 0xbb, 0x53, 0x79, 0x95, 0xbd,
  0x91, 0x53, 0x56, 0x3e, 0x41, 0xc1, 0x03, 0x3e, 0x29, 0x32, 0x02, 0x3f,
  0x14, 0x87, 0xe1, 0xbe, 0x66, 0x3d, 0x33, 0x3e, 0x38, 0xba, 0xa7, 0xbd,
  0x9e, 0xdb, 0xee, 0x3d, 0x15, 0x2b, 0x90, 0xbf, 0x79, 0xfa, 0xa0, 0xbe,
  0xd3, 0x44, 0x01, 0xbd, 0x95, 0x18, 0xad, 0x3e, 0x76, 0x76, 0xda, 0xbe,
  0x1f, 0x6a, 0x82, 0x3e, 0x55, 0xed, 0x56, 0xbe, 0x6c, 0x56, 0x46, 0x3e,
  0xb5, 0x20, 0x15, 0xbf, 0x35, 0xb2, 0x0e, 0xbf, 0x56, 0x7c, 0x9a, 0x3e,
  0xfd, 0x0c, 0x7c, 0x3e, 0xc8, 0xe6, 0x02, 0xbf, 0x40, 0x26, 0xa8, 0xbd,
  0x25, 0x5a, 0x3a, 0x3e, 0x7c, 0x52, 0xc7, 0x3d, 0x0b, 0x8b, 0x91, 0xbe,
  0x98, 0x58, 0xf3, 0xbd, 0x8f, 0x19, 0x48, 0x3c, 0x33, 0xff, 0x8a, 0x3e,
  0x67, 0x39, 0x26, 0xbf, 0xd6, 0x88, 0xee, 0x3e, 0x7f, 0x7f, 0xa6, 0x3c,
  0xdf, 0x42, 0x85, 0x3e, 0x0f, 0xa3, 0x11, 0xbf, 0x13, 0x59, 0x02, 0xbf,
  0x83, 0x38, 0xac, 0x3e, 0x3f, 0xd0, 0x44, 0x3d, 0xc3, 0x17, 0x0b, 0xbf,
  0x71, 0x6b, 0x9d, 0x3a, 0xcb, 0x4a, 0x89, 0xbe, 0x65, 0xcd, 0xc4, 0x3d,
  0x41, 0xf2, 0x3a, 0xbf, 0x38, 0xe2, 0x18, 0xbf, 0x18, 0x98, 0x1c, 0x3e,
  0x79, 0x6a, 0x43, 0x3e, 0x1b, 0x8f, 0x95, 0xbe, 0x07, 0x60, 0x10, 0x3c,
  0x1c, 0x8a, 0x23, 0xbe, 0x89, 0x1d, 0x9b, 0xbd, 0xff, 0x8d, 0x71, 0xbe,
  0xc2, 0xb4, 0x2e, 0xbe, 0x52, 0xea, 0xc1, 0xbd, 0xde, 0xf0, 0x4e, 0xbd,
  0x7a, 0x98, 0x1c, 0x3e, 0x55, 0x24, 0xc8, 0xbd, 0x91, 0xd7, 0x46, 0xbd,
  0xf7, 0x90, 0x4b, 0xbe, 0x2e, 0x26, 0xac, 0xbd, 0xed, 0x3a, 0xce, 0xbd,
  0x42, 0xd2, 0x20, 0xbe, 0xfb, 0x2b, 0x9f, 0x3e, 0xc0, 0x5f, 0xed, 0x3d,
  0xa9, 0x30, 0xea, 0x3c, 0x97, 0x3a, 0x37, 0xbd, 0xa4, 0x68, 0xdb, 0x3d,
  0x72, 0xf7, 0x94, 0xbc, 0x86, 0x06, 0x18, 0x3c, 0x51, 0xe4, 0x6b, 0x3b,
  0x94, 0xf6, 0x6b, 0x3e, 0xd4, 0x58, 0xc4, 0x3e, 0x8a, 0xf5, 0x3c, 0x3e,
  0xde, 0x6f, 0x97, 0x3e, 0x41, 0x15, 0xbd, 0x3d, 0xd3, 0xba, 0xf0, 0x3d,
  0xef, 0xcd, 0x89, 0x3e, 0x89, 0x71, 0x4b, 0x3d, 0xad, 0xee, 0xd8, 0xbd,
  0x7c, 0xed, 0xad, 0xbd, 0x1d, 0x7f, 0x1c, 0xbe, 0x62, 0x18, 0xb7, 0x3d,
  0xc1, 0xa1, 0xf1, 0x3d, 0xa6, 0x8e, 0x3a, 0xbe, 0x6e, 0xf0, 0x19, 0x3e,
  0xdc, 0xb6, 0x23, 0xbd, 0xec, 0x25, 0x5c, 0x3e, 0x81, 0x65, 0x1f, 0x3f,
  0x08, 0x06, 0xed, 0xbd, 0x75, 0xce, 0xbd, 0x3e, 0xdc, 0x8b, 0xbd, 0xbd,
  0x16, 0xd2, 0x7d, 0x3d, 0xfa, 0xde, 0x2a, 0x3f, 0xb3, 0xf5, 0x89, 0xbd,
  0x1f, 0xd9, 0x3c, 0x3d, 0xd0, 0xec, 0x37, 0xbe, 0xe4, 0x1b, 0xa7, 0xbd,
  0xe7, 0xbc, 0x91, 0xbd, 0x56, 0x1c, 0x1e, 0xbe, 0x6d, 0xaa, 0x90, 0xbe,
  0xfe, 0x43, 0x78, 0xbe, 0x4f, 0x23, 0x0b, 0xbe, 0x2a, 0xb2, 0xf9, 0x3d,
  0xa8, 0x4b, 0x49, 0xbe, 0xb0, 0xf7, 0x26, 0x3e, 0x7a, 0x65, 0x1a, 0x3e,
  0xad, 0x9f, 0x9e, 0xbd, 0xbe, 0x0d, 0x65, 0xbe, 0x0e, 0x8a, 0x63, 0xbe,
  0x39, 0xd1, 0x5c, 0xbd, 0x11, 0x06, 0x6f, 0x3d, 0x9f, 0x00, 0x6c, 0xbe,
  0x72, 0x55, 0x90, 0xbc, 0x33, 0xe4, 0x03, 0xbd, 0x09, 0x9b, 0xb6, 0xbc,
  0x73, 0x8d, 0x75, 0xbd, 0x3a, 0x8a, 0x04, 0xbe, 0xe1, 0x13, 0x6c, 0xbd,
  0xf4, 0xdd, 0x65, 0x3d, 0x5d, 0x6d, 0x33, 0xbe, 0xaa, 0x5c, 0xed, 0xbe,
  0xb6, 0x98, 0x24, 0xbe, 0x95, 0xc3, 0xce, 0xbe, 0xb3, 0x19, 0x39, 0xbe,
  0x80, 0x77, 0x34, 0xbd, 0x92, 0x6f, 0x49, 0xbe, 0x8f, 0x35, 0x0c, 0x3e,
  0x27, 0x54, 0x60, 0x3e, 0xd9, 0x0e, 0x6e, 0xbe, 0x41, 0x8e, 0x92, 0x3e,
  0x4f, 0x0e, 0x7a, 0xbe, 0x14, 0x59, 0xae, 0xbd, 0x4c, 0x5d, 0x6b, 0x3e,
  0xd9, 0x91, 0x6c, 0xbe, 0x98, 0x9f, 0x20, 0x3c, 0x28, 0xc2, 0x08, 0x3f,
  0x15, 0xa1, 0xf4, 0x3d, 0xe2, 0xc0, 0x40, 0xbd, 0x4b, 0x5d, 0xb1, 0xbe,
  0x80, 0x71, 0xa7, 0x3d, 0x4e, 0x9a, 0x1e, 0xbd, 0x75, 0x8f, 0x6e, 0xbe,
  0x2b, 0x3b, 0xb0, 0x3c, 0x55, 0xd2, 0xa9, 0xbd, 0x26, 0xbb, 0x77, 0xbd,
  0x21, 0x5f, 0xb4, 0x3c, 0xaa, 0x9d, 0x1e, 0xbe, 0xd4, 0x7c, 0x6d, 0x3d,
  0xad, 0xf4, 0x66, 0xbd, 0xb6, 0xcd, 0x41, 0xbe, 0x95, 0x53, 0xc4, 0xbe,
  0x47, 0x23, 0x97, 0xbc, 0x58, 0xf4, 0x4f, 0xbd, 0x6b, 0x12, 0x04, 0x3e,
  0x02, 0xd4, 0x4b, 0x3d, 0x0a, 0xa9, 0x9e, 0xbd, 0xa1, 0x89, 0x29, 0x3e,
  0x7e, 0x9c, 0x2b, 0xbd, 0xcf, 0x2b, 0xb8, 0xbe, 0x11, 0x48, 0x40, 0xbe,
  0x83, 0xff, 0x85, 0xbe, 0x69, 0x56, 0x03, 0xbe, 0x0f, 0xb2, 0x96, 0xbe,
  0x6c, 0x9a, 0x97, 0x3e, 0x93, 0x1c, 0x88, 0xbe, 0xb7, 0x5c, 0x57, 0xbe,
  0xea, 0x90, 0x3f, 0xbe, 0x89, 0x28, 0x27, 0xbe, 0xc3, 0x9d, 0x39, 0xbe,
  0x1d, 0x66, 0x8e, 0x3d, 0xee, 0x3a, 0xc2, 0xbd, 0x44, 0x92, 0x69, 0x3c,
  0xc5, 0xf1, 0x25, 0xbe, 0xa8, 0xd5, 0xa1, 0xbc, 0x78, 0x4f, 0xcd, 0xbe,
  0x71, 0xaf, 0x90, 0xbe, 0xa5, 0xd0, 0x71, 0xbe, 0x95, 0xd5, 0xa0, 0xbd,
  0xad, 0xb9, 0xa9, 0xbd, 0x91, 0xa5, 0x83, 0x3e, 0xbf, 0x14, 0xeb, 0x3d,
  0xdf, 0x4d, 0x51, 0xbe, 0xbf, 0x5c, 0xd2, 0x3d, 0x0f, 0x52, 0x70, 0xbe,
  0x07, 0x60, 0x9a, 0xbe, 0xa6, 0xba, 0x07, 0xbe, 0xc3, 0xc2, 0xd6, 0xbd,
  0xc6, 0x58, 0x48, 0xbe, 0xed, 0x4e, 0xa0, 0xbe, 0x6c, 0xe2, 0xa6, 0x3e,
  0x77, 0x4a, 0x9e, 0xbd, 0x3d, 0xa5, 0x25, 0xbd, 0xca, 0x90, 0x9b, 0x3e,
  0x92, 0xb4, 0x97, 0x3d, 0x91, 0x77, 0x14, 0xbd, 0xcf, 0xc1, 0x39, 0xbe,
  0x81, 0xc8, 0x3c, 0xbe, 0xa0, 0x95, 0xb2, 0x3e, 0x79, 0x63, 0x8f, 0xbe,
  0xc3, 0xa0, 0x8c, 0xbd, 0xc2, 0x54, 0xe1, 0xbd, 0x11, 0xad, 0xbe, 0xbb,
  0xc1, 0xbb, 0x11, 0x3d, 0xf5, 0x32, 0x6e, 0xbd, 0xe7, 0xdf, 0xee, 0xbc,
  0xfc, 0xaf, 0x32, 0xbe, 0x81, 0x6e, 0x4c, 0xbe, 0x2b, 0x9d, 0x1c, 0xbd,
  0x7a, 0xf1, 0xb1, 0xbd, 0x7f, 0x09, 0xb8, 0x3e, 0x87, 0x6c, 0x6b, 0x3e,
  0xa5, 0x44, 0x74, 0xbd, 0x7c, 0xad, 0x14, 0x3e, 0xda, 0x17, 0x35, 0x3e,
  0x0a, 0xdf, 0xff, 0xff, 0x10, 0x00, 0x00, 0x00, 0x08, 0x00, 0x00, 0x00,
  0x1c, 0x00, 0x00, 0x00, 0x38, 0x00, 0x00, 0x00, 0x04, 0x00, 0x00, 0x00,
  0x10, 0x00, 0x00, 0x00, 0x04, 0x00, 0x00, 0x00, 0x01, 0x00, 0x00, 0x00,
  0x08, 0x00, 0x00, 0x00, 0x1a, 0x00, 0x00, 0x00, 0x73, 0x65, 0x71, 0x75,
  0x65, 0x6e, 0x74, 0x69, 0x61, 0x6c, 0x2f, 0x63, 0x6f, 0x6e, 0x76, 0x32,
  0x64, 0x5f, 0x31, 0x2f, 0x43, 0x6f, 0x6e, 0x76, 0x32, 0x44, 0x00, 0x00,
  0x04, 0xdf, 0xff, 0xff, 0xfa, 0xdf, 0xff, 0xff, 0x04, 0x00, 0x00, 0x00,
  0x80, 0x01, 0x00, 0x00, 0xcc, 0xe7, 0xf0, 0x3e, 0xb8, 0xcc, 0x95, 0x3d,
  0xa9, 0x4d, 0x45, 0xbe, 0x43, 0x52, 0xa1, 0x3e, 0x7b, 0x10, 0x97, 0xbd,
  0x69, 0x3c, 0x43, 0xbe, 0xeb, 0xe1, 0xce, 0x3e, 0xb3, 0x7e, 0x1f, 0xbe,
  0x0b, 0xc2, 0x34, 0xbd, 0x95, 0x9f, 0xaf, 0x3e, 0xc2, 0xd2, 0xc5, 0x3d,
  0x6c, 0x65, 0x89, 0xbd, 0xa8, 0x91, 0x21, 0x3f, 0x0b, 0x08, 0xcd, 0xbd,
  0xb0, 0xb1, 0xf8, 0x3d, 0xc5, 0xe3, 0xbc, 0x3e, 0x9f, 0xa3, 0x47, 0xbe,
  0x1b, 0xb4, 0x3c, 0xbe, 0x17, 0xbf, 0x18, 0x3f, 0x00, 0xb7, 0xe6, 0x3d,
  0x46, 0x82, 0x86, 0x3d, 0x38, 0x89, 0x17, 0x3f, 0x6d, 0x12, 0xd4, 0xbd,
  0x9c, 0x9d, 0xa0, 0xbd, 0xbb, 0x75, 0x13, 0xbe, 0xcd, 0x71, 0xc4, 0x3c,
  0x48, 0x65, 0xa9, 0xbe, 0xee, 0xf4, 0xd9, 0x3e, 0xd3, 0x8c, 0x15, 0x3d,
  0xd0, 0x83, 0xe2, 0x3d, 0x3e, 0x7e, 0x43, 0x3e, 0x6d, 0x61, 0x83, 0x3d,
  0x30, 0xf2, 0x0a, 0x3e, 0x3b, 0x9f, 0x35, 0xbe, 0xb6, 0x5f, 0x1a, 0xbe,
  0x1c, 0x3f, 0x9a, 0x3d, 0x8e, 0x94, 0xba, 0xbe, 0xe4, 0x5a, 0x29, 0x3d,
  0xcd, 0xa0, 0x33, 0xbd, 0x54, 0x93, 0x4a, 0xbe, 0xb0, 0xd7, 0x5d, 0xbc,
  0x81, 0x55, 0x28, 0xbe, 0x6b, 0x23, 0xef, 0xbe, 0x95, 0x96, 0x23, 0x3c,
  0x68, 0xdd, 0x7f, 0xbd, 0x6d, 0xc4, 0x14, 0xbf, 0x5f, 0x17, 0x37, 0x3d,
  0x5d, 0x0f, 0xdf, 0x3d, 0x32, 0x2c, 0xa5, 0xbd, 0x0b, 0x0e, 0x01, 0xbe,
  0xb6, 0x9b, 0x6a, 0x3c, 0xae, 0x91, 0xdc, 0xbc, 0x98, 0x54, 0x07, 0x3d,
  0x66, 0x96, 0x76, 0x3d, 0x62, 0x66, 0x6d, 0x3c, 0xa4, 0xa9, 0x84, 0x3d,
  0x1c, 0x58, 0x5e, 0x3d, 0x0e, 0xb6, 0xdc, 0x3c, 0xfd, 0x4e, 0x65, 0x3d,
  0x52, 0xe3, 0xb5, 0x3d, 0x31, 0xd4, 0x3c, 0x3d, 0xe8, 0x5b, 0x41, 0xbe,
  0x84, 0x07, 0xec, 0x3d, 0x76, 0xfa, 0xd4, 0x3e, 0xf4, 0xbc, 0x20, 0x3e,
  0x16, 0x37, 0x60, 0xbe, 0x6d, 0xb0, 0xf7, 0x3e, 0xb0, 0x42, 0x64, 0xbd,
  0x87, 0x72, 0x25, 0x3e, 0x2c, 0x4f, 0x11, 0xbe, 0x29, 0x86, 0xb0, 0xbd,
  0xea, 0x1e, 0x35, 0xbf, 0xdd, 0x09, 0x2c, 0x3e, 0xdf, 0x28, 0x8e, 0x3e,
  0x47, 0x60, 0x63, 0xbe, 0x12, 0x86, 0x99, 0x3e, 0x79, 0x56, 0xaf, 0xbe,
  0x2c, 0xfe, 0xe8, 0x3d, 0x80, 0x93, 0x02, 0x3f, 0xc0, 0x3a, 0x07, 0xbb,
  0x46, 0x1f, 0x2f, 0x3e, 0xdf, 0xd6, 0x76, 0x3e, 0x85, 0x22, 0x1f, 0xbe,
  0xe2, 0xe9, 0xa1, 0xbe, 0x56, 0x66, 0xdd, 0xbd, 0x02, 0xca, 0x7a, 0x3e,
  0xa8, 0xd0, 0x9a, 0x3d, 0xbb, 0x58, 0xa9, 0x3d, 0xb9, 0xb9, 0x5a, 0x3c,
  0xac, 0x22, 0xa2, 0xbd, 0xe1, 0xc6, 0xc4, 0xbd, 0xc5, 0xde, 0x59, 0x3d,
  0xff, 0x79, 0x81, 0xbd, 0x4b, 0x23, 0xb8, 0x3e, 0x2b, 0xf7, 0x36, 0xbe,
  0x3b, 0xb6, 0x5b, 0x3e, 0xe2, 0xe0, 0xff, 0xff, 0x10, 0x00, 0x00, 0x00,
  0x07, 0x00, 0x00, 0x00, 0x1c, 0x00, 0x00, 0x00, 0x38, 0x00, 0x00, 0x00,
  0x04, 0x00, 0x00, 0x00, 0x08, 0x00, 0x00, 0x00, 0x04, 0x00, 0x00, 0x00,
  0x03, 0x00, 0x00, 0x00, 0x01, 0x00, 0x00, 0x00, 0x18, 0x00, 0x00, 0x00,
  0x73, 0x65, 0x71, 0x75, 0x65, 0x6e, 0x74, 0x69, 0x61, 0x6c, 0x2f, 0x63,
  0x6f, 0x6e, 0x76, 0x32, 0x64, 0x2f, 0x43, 0x6f, 0x6e, 0x76, 0x32, 0x44,
  0x00, 0x00, 0x00, 0x00, 0xdc, 0xe0, 0xff, 0xff, 0xd2, 0xe1, 0xff, 0xff,
  0x04, 0x00, 0x00, 0x00, 0xc0, 0x00, 0x00, 0x00, 0xeb, 0x27, 0x85, 0xbd,
  0x47, 0x1a, 0x30, 0x3d, 0x5d, 0xbb, 0x9c, 0x3e, 0x8f, 0x3b, 0x02, 0x3e,
  0x99, 0xa3, 0x00, 0xbf, 0x1f, 0x59, 0x07, 0x3f, 0x15, 0x17, 0xe9, 0xbe,
  0xf3, 0xa8, 0xdb, 0x3e, 0xbe, 0x8c, 0xf3, 0x3e, 0xbf, 0xff, 0xde, 0xbe,
  0xa0, 0x76, 0x44, 0x3e, 0xf5, 0x77, 0xcc, 0x3d, 0x81, 0x87, 0xd2, 0x3d,
  0xc6, 0x8a, 0xd8, 0x3d, 0xf5, 0x78, 0x56, 0x3e, 0x11, 0xb2, 0xb0, 0x3e,
  0x81, 0xd3, 0x00, 0x3e, 0x70, 0x9b, 0x6c, 0xbf, 0x0c, 0x75, 0xb3, 0x3e,
  0xaa, 0x3f, 0x6e, 0xbe, 0x86, 0x32, 0xdf, 0x3e, 0xb4, 0xf3, 0x9a, 0xbe,
  0x8c, 0xee, 0x80, 0x3e, 0x94, 0xa2, 0x91, 0xbf, 0xd9, 0xbd, 0x9b, 0x3d,
  0xe9, 0xbe, 0xd6, 0xbe, 0x27, 0x9f, 0xbe, 0xbe, 0xf2, 0xfa, 0x2a, 0x3e,
  0x99, 0xa2, 0x3a, 0xbe, 0xfe, 0xab, 0x52, 0xbe, 0x97, 0x5d, 0x71, 0x3e,
  0xf0, 0x57, 0xad, 0xbd, 0x73, 0x83, 0x74, 0xbd, 0x58, 0xe2, 0x9b, 0xbe,
  0xd2, 0x2d, 0xc5, 0x3e, 0x74, 0xf8, 0x8a, 0x3e, 0xe3, 0x68, 0x4e, 0xbe,
  0x53, 0x5d, 0x9a, 0xbe, 0xbc, 0xc9, 0xc7, 0x3e, 0x96, 0x9f, 0xa7, 0xbe,
  0x61, 0x14, 0xc2, 0x3e, 0x81, 0xd1, 0xc7, 0xbe, 0x6e, 0x6e, 0x93, 0xbe,
  0x38, 0x58, 0x5a, 0x3e, 0x9a, 0xd4, 0xcf, 0xbe, 0xa7, 0x26, 0x09, 0x3e,
  0xcf, 0x3d, 0x85, 0x3e, 0xcb, 0x86, 0x3d, 0x3c, 0xfa, 0xe1, 0xff, 0xff,
  0x10, 0x00, 0x00, 0x00, 0x06, 0x00, 0x00, 0x00, 0x14, 0x00, 0x00, 0x00,
  0x30, 0x00, 0x00, 0x00, 0x02, 0x00, 0x00, 0x00, 0x03, 0x00, 0x00, 0x00,
  0x10, 0x00, 0x00, 0x00, 0x19, 0x00, 0x00, 0x00, 0x73, 0x65, 0x71, 0x75,
  0x65, 0x6e, 0x74, 0x69, 0x61, 0x6c, 0x2f, 0x64, 0x65, 0x6e, 0x73, 0x65,
  0x5f, 0x31, 0x2f, 0x4d, 0x61, 0x74, 0x4d, 0x75, 0x6c, 0x00, 0x00, 0x00,
  0xec, 0xe1, 0xff, 0xff, 0xe2, 0xe2, 0xff, 0xff, 0x04, 0x00, 0x00, 0x00,
  0x00, 0x1c, 0x00, 0x00, 0x93, 0x6d, 0x44, 0xbe, 0xc4, 0x74, 0xf1, 0x3d,
  0x88, 0xdd, 0xf8, 0xba, 0xd9, 0x70, 0xb9, 0xbd, 0x56, 0x62, 0x29, 0x3d,
  0x5f, 0x1a, 0x95, 0x3d, 0xfe, 0x74, 0x07, 0x3d, 0xb4, 0xb7, 0x6e, 0xbe,
  0x68, 0x2b, 0x0d, 0x3d, 0xb9, 0x5d, 0xeb, 0xbd, 0x81, 0x31, 0x4c, 0x3e,
  0x73, 0xde, 0x8e, 0x3d, 0xa6, 0xf4, 0xe9, 0x3d, 0xae, 0x44, 0x32, 0xbd,
  0xd8, 0x49, 0x14, 0x3e, 0xde, 0x1e, 0x46, 0xbe, 0x59, 0xdf, 0x80, 0xbe,
  0x88, 0x05, 0x3e, 0xbe, 0xdd, 0x3b, 0x60, 0x3d, 0xff, 0xc7, 0x29, 0xbe,
  0x90, 0x21, 0x01, 0xbe, 0x2a, 0x97, 0x87, 0xbe, 0xf3, 0xe2, 0x6e, 0xbd,
  0x1a, 0xec, 0x02, 0xbe, 0xc6, 0x0e, 0xd0, 0xbd, 0x35, 0xde, 0xaa, 0xbd,
  0xb1, 0xe6, 0x51, 0x3e, 0xa1, 0xf9, 0xb1, 0xbc, 0xb8, 0x1d, 0xa0, 0xbd,
  0x7f, 0xcb, 0xe6, 0xbd, 0x9b, 0x01, 0x2e, 0xbe, 0x54, 0xa1, 0xe3, 0xbd,
  0xfe, 0x13, 0x32, 0xbe, 0x68, 0xd6, 0xd6, 0xbd, 0xc7, 0x38, 0x19, 0xbe,
  0x28, 0xa3, 0x24, 0xbe, 0x40, 0x19, 0xb4, 0xbd, 0x68, 0x94, 0xa3, 0x3d,
  0x71, 0x38, 0x73, 0xbc, 0x2b, 0x07, 0x7a, 0xbe, 0xef, 0x94, 0x9a, 0xbd,
  0x1c, 0x78, 0xc5, 0x3d, 0x66, 0x27, 0x01, 0x3e, 0xce, 0x85, 0x4f, 0x3d,
  0x12, 0x93, 0xc4, 0xbe, 0x81, 0x44, 0x26, 0x3e, 0x3b, 0xb7, 0x69, 0x3d,
  0x98, 0x05, 0x03, 0xbe, 0xc6, 0xef, 0x23, 0xbb, 0xc4, 0xe6, 0x0a, 0xbe,
  0x6e, 0xad, 0x64, 0xbe, 0x5c, 0xb3, 0x98, 0xbe, 0x23, 0x82, 0x1b, 0x3e,
  0xc2, 0xf3, 0xd8, 0xbd, 0xc5, 0x98, 0xfd, 0x3b, 0x8a, 0x66, 0x4d, 0xbe,
  0x61, 0x70, 0xbe, 0xbd, 0x5d, 0xad, 0x2e, 0x3d, 0x1f, 0xd4, 0x1f, 0xbe,
  0x4f, 0xbe, 0x20, 0xbe, 0x92, 0x74, 0x86, 0x3d, 0x16, 0xb3, 0xdd, 0x3c,
  0x5b, 0x1a, 0xa1, 0x3d, 0x5d, 0x37, 0x16, 0x3b, 0x4b, 0xe8, 0x16, 0x3e,
  0xa8, 0x32, 0xd6, 0xbd, 0x39, 0x24, 0xc4, 0x3d, 0x52, 0x49, 0x45, 0xbe,
  0x55, 0xbc, 0x58, 0x3e, 0xd3, 0xa4, 0xf0, 0xbd, 0xef, 0x49, 0x6e, 0xbe,
  0xaf, 0x42, 0x63, 0xbd, 0x18, 0xa6, 0x00, 0xbe, 0xa9, 0xc2, 0xcf, 0xbd,
  0x81, 0x1d, 0xe0, 0x3d, 0x1d, 0x0f, 0x86, 0xbd, 0xb5, 0x9e, 0x8e, 0xbe,
  0x28, 0xdf, 0xcc, 0x3c, 0x31, 0xb1, 0x24, 0xbe, 0xe9, 0xcc, 0xc7, 0xbd,
  0xc3, 0xdb, 0x42, 0x3d, 0x04, 0xee, 0x61, 0xbd, 0x62, 0x39, 0x93, 0xbd,
  0xf3, 0x48, 0xfe, 0xbc, 0xb9, 0xaa, 0x95, 0xbc, 0x88, 0x7e, 0xd0, 0xbd,
  0x0e, 0xd6, 0xbe, 0xbd, 0x20, 0xd1, 0x44, 0x3e, 0x83, 0xf7, 0x20, 0xbc,
  0x20, 0xa8, 0x40, 0xbe, 0x0e, 0x72, 0x06, 0xbe, 0xdf, 0xc6, 0x52, 0xbe,
  0xe0, 0x63, 0xf2, 0xbd, 0x46, 0x63, 0x3e, 0xbe, 0x61, 0xdc, 0x6b, 0xbd,
  0x4c, 0xbd, 0xb8, 0x3d, 0x96, 0x7b, 0x92, 0x3d, 0x83, 0xce, 0x50, 0x3e,
  0xb8, 0x7d, 0x1b, 0xbe, 0xa5, 0x7d, 0xc7, 0x3d, 0x48, 0x27, 0x29, 0x3e,
  0xa7, 0x93, 0x8a, 0xbe, 0xb0, 0x5d, 0x30, 0xbe, 0x69, 0xae, 0x22, 0xbe,
  0x9c, 0xc2, 0xf6, 0x3c, 0x50, 0xeb, 0x6e, 0x3d, 0x07, 0xe1, 0x07, 0xbe,
  0xb2, 0x4b, 0x41, 0xbe, 0x61, 0xfa, 0x54, 0xbe, 0xa0, 0xfa, 0x84, 0xbe,
  0x98, 0xce, 0x7d, 0xbd, 0xfd, 0xc4, 0xa5, 0x3c, 0x11, 0x31, 0x5a, 0xbe,
  0xb6, 0x96, 0x65, 0xbe, 0xae, 0x28, 0xc5, 0x3d, 0x5e, 0xcb, 0xb0, 0xbe,
  0xd9, 0xd7, 0x6e, 0xbe, 0x5f, 0xec, 0xc5, 0x3d, 0x68, 0x1b, 0x12, 0x3e,
  0xe3, 0x10, 0x8e, 0xbe, 0xf0, 0x7d, 0x02, 0x3e, 0x79, 0xc7, 0x9f, 0x3e,
  0x3a, 0x1e, 0xb6, 0xbd, 0x8b, 0x11, 0x39, 0xbe, 0x42, 0x6e, 0x77, 0x3d,
  0xb2, 0x37, 0x97, 0xbe, 0x90, 0xb9, 0x72, 0x3f, 0x7d, 0x53, 0x50, 0xbe,
  0x0e, 0x20, 0xa4, 0xbd, 0x7a, 0x0c, 0x82, 0xbe, 0xfb, 0xec, 0x1a, 0x3e,
  0xa0, 0x4e, 0xca, 0xbd, 0x10, 0xda, 0x89, 0xbe, 0xe2, 0x26, 0x73, 0x3e,
  0xa9, 0x8f, 0x08, 0x3e, 0x01, 0x58, 0x38, 0xbe, 0x70, 0xc0, 0x05, 0x3f,
  0x28, 0x4d, 0x18, 0x3e, 0x4b, 0x41, 0x0d, 0x3d, 0xbd, 0x7c, 0x9a, 0xbe,
  0x01, 0xb3, 0x17, 0x3c, 0xb8, 0xc7, 0x1d, 0xbe, 0xeb, 0x06, 0xdf, 0x3e,
  0x0b, 0x3d, 0xdc, 0xbd, 0xad, 0xc2, 0x6f, 0xbe, 0x1f, 0x54, 0x87, 0x3d,
  0x7a, 0x36, 0xc0, 0xbd, 0xc8, 0xdc, 0x92, 0xbe, 0x59, 0x68, 0xe9, 0xbd,
  0xe8, 0x6f, 0x27, 0x3e, 0x1b, 0x15, 0x08, 0x3e, 0x10, 0x6e, 0x94, 0xbe,
  0x88, 0x6a, 0x14, 0x3e, 0x34, 0xde, 0xeb, 0x3d, 0xef, 0x5c, 0x9d, 0xbe,
  0x87, 0x5e, 0xaf, 0xbe, 0xf2, 0x6f, 0x80, 0xbd, 0xe3, 0x0d, 0x5b, 0x3d,
  0xdf, 0x20, 0x8a, 0x3e, 0xf8, 0xfc, 0xaf, 0xbe, 0x42, 0x4c, 0xee, 0x3b,
  0x46, 0x0e, 0x25, 0x3e, 0xe4, 0x30, 0xa9, 0x3e, 0x59, 0x8e, 0x1c, 0x3d,
  0xb5, 0x43, 0xd7, 0x3d, 0x41, 0x68, 0x65, 0x3d, 0xc7, 0x62, 0xec, 0x3d,
  0x8a, 0x07, 0x4f, 0xbd, 0x50, 0x60, 0x8e, 0x3e, 0x4f, 0xaf, 0xef, 0x3e,
  0x48, 0xea, 0x76, 0x3d, 0xf1, 0x99, 0xa9, 0xbe, 0xa8, 0xda, 0x23, 0xbe,
  0x8e, 0x76, 0x9e, 0xbe, 0xb0, 0x3c, 0x06, 0x3f, 0x4c, 0xdf, 0xf6, 0xbd,
  0x69, 0xdc, 0x9b, 0x3c, 0x0f, 0x17, 0x33, 0xbe, 0x1f, 0xcd, 0x00, 0x3e,
  0x48, 0xa8, 0x7c, 0xbe, 0x2e, 0x74, 0xa1, 0xbd, 0x64, 0x0b, 0x97, 0xbd,
  0xcb, 0x0e, 0x39, 0x3d, 0x5e, 0x8e, 0xa8, 0xbc, 0x28, 0xbf, 0x73, 0x3e,
  0x87, 0xb5, 0xf4, 0x3d, 0xeb, 0x97, 0xa7, 0xbe, 0xfb, 0x68, 0x39, 0xbe,
  0xa6, 0x17, 0x2e, 0xbd, 0xe3, 0x6a, 0xa1, 0xbe, 0x60, 0x5f, 0xfb, 0x3e,
  0x86, 0xe0, 0x69, 0xbd, 0x6c, 0xce, 0x94, 0x3d, 0x97, 0x61, 0x16, 0xbc,
  0x31, 0xbe, 0xbc, 0x3d, 0x2f, 0x79, 0xe2, 0xbd, 0x02, 0x05, 0x50, 0x3d,
  0xa1, 0x50, 0x94, 0x3d, 0xa9, 0x4c, 0x35, 0xbe, 0xe2, 0xba, 0x25, 0xbe,
  0x2e, 0xfc, 0x1a, 0x3f, 0x19, 0x85, 0x18, 0x3f, 0xfb, 0x1b, 0x9c, 0xbe,
  0x78, 0x12, 0x8a, 0xbe, 0x0a, 0x5f, 0x73, 0xbe, 0xd9, 0x91, 0x52, 0xbe,
  0xe5, 0x6c, 0xf3, 0x3e, 0x29, 0x46, 0x3e, 0xbe, 0x3e, 0x4a, 0xb8, 0xbd,
  0x59, 0x9c, 0x33, 0xbd, 0x51, 0x01, 0xed, 0x3d, 0xff, 0x06, 0xa3, 0xbe,
  0x4f, 0xec, 0xb1, 0xbd, 0x80, 0xa5, 0x1d, 0xbe, 0x39, 0x3b, 0x38, 0xbe,
  0xab, 0x96, 0x27, 0x3d, 0x01, 0x09, 0x39, 0x3c, 0x88, 0xea, 0x09, 0x3f,
  0x9b, 0x28, 0xc2, 0xbd, 0x5f, 0x83, 0x9f, 0xbe, 0xb4, 0x46, 0xbc, 0xbd,
  0xc4, 0x35, 0x2a, 0x3d, 0x06, 0xd1, 0x97, 0x3e, 0x4a, 0xfd, 0xe2, 0xbd,
  0x3f, 0xc2, 0x94, 0x3e, 0xba, 0x7e, 0x48, 0xbe, 0xf9, 0x6b, 0x77, 0x3e,
  0x28, 0xdd, 0x79, 0xbd, 0x77, 0xb2, 0xae, 0xba, 0x31, 0x7d, 0xaf, 0x3e,
  0x91, 0x1b, 0xe7, 0x3d, 0x32, 0xb1, 0xbf, 0xbe, 0xb0, 0x8a, 0x3f, 0x3f,
  0xbe, 0x15, 0x93, 0xbc, 0x1d, 0x20, 0x77, 0xbd, 0xa6, 0x48, 0x3e, 0x3e,
  0x14, 0xe7, 0x46, 0x3f, 0xf2, 0x3b, 0x0e, 0x3f, 0x34, 0x2c, 0xb9, 0x3e,
  0x94, 0xfc, 0x37, 0xbc, 0x32, 0xed, 0x84, 0x3e, 0xa5, 0x7b, 0xdb, 0x3d,
  0xbf, 0xfa, 0x51, 0xbe, 0x27, 0x6b, 0x71, 0xbd, 0xd0, 0x8c, 0x0e, 0xbd,
  0xc5, 0xfc, 0xbc, 0xbe, 0xeb, 0x9f, 0x63, 0x3e, 0x54, 0x08, 0x33, 0xbe,
  0x8c, 0x2f, 0x52, 0xbe, 0x23, 0x14, 0x71, 0x3e, 0x77, 0x38, 0x62, 0x3d,
  0x23, 0x59, 0xec, 0xbb, 0xab, 0x4b, 0x81, 0x3d, 0x56, 0x8e, 0x8e, 0xbe,
  0x57, 0x6b, 0x32, 0x3d, 0xe2, 0x65, 0xfc, 0xbc, 0x75, 0x32, 0x42, 0x3e,
  0x83, 0xfc, 0x5a, 0xbd, 0x2b, 0xc5, 0xa5, 0x3e, 0x77, 0x2b, 0x8a, 0x3e,
  0xf1, 0x76, 0xd8, 0x3b, 0x56, 0xc8, 0x5f, 0xbc, 0x98, 0x4a, 0x0f, 0x3d,
  0x40, 0xc8, 0x20, 0x3e, 0xcf, 0x7a, 0xb7, 0x3b, 0x52, 0xa3, 0x91, 0xbc,
  0x71, 0xe1, 0xc2, 0x3d, 0x0a, 0x6f, 0xb1, 0xbd, 0x8f, 0x0a, 0x84, 0xbe,
  0xd8, 0xcb, 0xb7, 0xbd, 0xc0, 0x0b, 0x6b, 0x3e, 0x23, 0x39, 0x2d, 0x3d,
  0x0c, 0x1a, 0x27, 0x3d, 0x9b, 0x77, 0xe8, 0x3b, 0x15, 0x95, 0x65, 0xbe,
  0x87, 0xc2, 0xe7, 0x3d, 0xc7, 0x4f, 0xee, 0x3d, 0xa3, 0xa3, 0x93, 0xbe,
  0x76, 0x8a, 0x24, 0x3d, 0xd7, 0x56, 0xda, 0x3d, 0xdd, 0x3b, 0x41, 0xbe,
  0xad, 0x4b, 0x17, 0xbc, 0x06, 0x32, 0x64, 0x3d, 0x0c, 0x74, 0x36, 0xbd,
  0x08, 0x0b, 0xbf, 0xbe, 0x85, 0x25, 0x28, 0xbe, 0x39, 0x5e, 0xf9, 0x3d,
  0x3c, 0xd9, 0x48, 0x3d, 0x3e, 0x78, 0x0f, 0x3e, 0xd1, 0x51, 0x6c, 0x3e,
  0x6b, 0xe8, 0x4c, 0x3e, 0x9c, 0xf8, 0x87, 0xbc, 0x39, 0x4b, 0xa6, 0xbe,
  0x0d, 0xaa, 0x90, 0xbd, 0x24, 0x6d, 0x5f, 0x3e, 0xd0, 0x49, 0x0f, 0x3e,
  0x6d, 0x65, 0xf7, 0x3b, 0xb5, 0x55, 0xa3, 0xbe, 0x10, 0xe3, 0x60, 0x3c,
  0x1a, 0xc6, 0x13, 0xbd, 0x8d, 0x37, 0x94, 0xbe, 0x71, 0xa4, 0x58, 0xbe,
  0x68, 0x25, 0x90, 0x3e, 0x5b, 0x30, 0xa6, 0x3d, 0xad, 0xa8, 0xa8, 0x3c,
  0x1a, 0x33, 0x49, 0x3e, 0x04, 0x5b, 0xbf, 0xbd, 0x26, 0xe5, 0x96, 0xbc,
  0x14, 0xec, 0x0a, 0xbf, 0xd6, 0x74, 0x2b, 0x3e, 0x9a, 0x6a, 0x63, 0x3d,
  0xa3, 0xbe, 0x7d, 0x3e, 0x42, 0x16, 0xb5, 0xbd, 0x0f, 0xec, 0x8b, 0x3d,
  0x1a, 0x0f, 0x9e, 0xbd, 0xc7, 0xda, 0x19, 0xbe, 0x49, 0x17, 0x9f, 0xbe,
  0xed, 0x8d, 0x89, 0xbe, 0xd0, 0xda, 0x07, 0x3f, 0xba, 0x8c, 0xf1, 0xbc,
  0x78, 0x17, 0x39, 0xbb, 0xe9, 0x70, 0xb0, 0xbe, 0xb3, 0xe5, 0x6e, 0x3e,
  0x89, 0x61, 0x8a, 0x3e, 0x74, 0x8f, 0x25, 0x3f, 0x84, 0x92, 0xb6, 0x3e,
  0xd0, 0x44, 0x71, 0x3d, 0x40, 0x40, 0x1a, 0x3d, 0x2d, 0x20, 0x4e, 0xbd,
  0x1f, 0x90, 0x7e, 0xbe, 0xda, 0xf2, 0x92, 0xbd, 0xb4, 0x84, 0x00, 0xbd,
  0x39, 0x1d, 0xa7, 0xbe, 0x9a, 0xfe, 0x66, 0xbe, 0x4a, 0x38, 0x8e, 0x3e,
  0xeb, 0xb2, 0x27, 0xbd, 0x5f, 0xa5, 0xa8, 0xbd, 0x4c, 0xff, 0x54, 0xbe,
  0x7b, 0x0a, 0xe1, 0x3e, 0x59, 0xd9, 0xac, 0xbd, 0xc5, 0xb0, 0x98, 0x3d,
  0x5d, 0xd0, 0x02, 0x3f, 0x0b, 0x65, 0xe8, 0x3d, 0xe9, 0xae, 0x26, 0x3e,
  0x5b, 0x78, 0xf9, 0x3d, 0x2f, 0xd3, 0x72, 0xbe, 0x82, 0xc6, 0xa7, 0xbe,
  0x6e, 0x14, 0xb3, 0x3c, 0x9a, 0x99, 0x32, 0x3e, 0x30, 0x21, 0x25, 0x3d,
  0x39, 0x05, 0x24, 0x3e, 0xf6, 0xd9, 0xa9, 0xbe, 0xb8, 0xa4, 0xc1, 0xbd,
  0x63, 0x8c, 0x4c, 0x3e, 0x03, 0x5d, 0x5a, 0x3e, 0x27, 0x06, 0x3f, 0x3d,
  0x93, 0x5b, 0xda, 0xbd, 0xbd, 0x5c, 0x01, 0x3e, 0x58, 0x63, 0xdb, 0x3d,
  0x71, 0x6e, 0x02, 0xbe, 0x97, 0x24, 0x13, 0x3d, 0xa1, 0xe6, 0x35, 0xbe,
  0xb9, 0xf0, 0x7b, 0xbd, 0xca, 0x79, 0xac, 0x3d, 0x57, 0x91, 0xec, 0x3c,
  0x48, 0x6f, 0x9b, 0xbd, 0x82, 0xf8, 0xba, 0xbd, 0x6a, 0xc6, 0x4f, 0xbe,
  0x80, 0x7f, 0x43, 0xbc, 0xe0, 0x63, 0xcd, 0x3d, 0x93, 0x88, 0x60, 0x3e,
  0x7f, 0x81, 0x4f, 0x3b, 0xfd, 0x9a, 0x42, 0x3e, 0x4a, 0xaa, 0x00, 0x3e,
  0x52, 0x91, 0x10, 0x3e, 0x36, 0xd2, 0x18, 0x3e, 0x4a, 0xa5, 0x82, 0x3d,
  0x97, 0x93, 0x28, 0xbd, 0xd7, 0x5d, 0xe2, 0xbd, 0x14, 0xce, 0x68, 0xbe,
  0xa6, 0xa0, 0x59, 0x3d, 0x16, 0x60, 0xc2, 0xbc, 0x34, 0x28, 0x22, 0xbc,
  0x7f, 0x3c, 0x94, 0xbd, 0x90, 0xb7, 0x48, 0xbd, 0xb9, 0x7a, 0x4b, 0xbd,
  0x3a, 0xad, 0x4f, 0x3e, 0xaf, 0x34, 0x87, 0x3d, 0x9a, 0x17, 0x1f, 0xbe,
  0xd0, 0xd6, 0x6b, 0x3e, 0x8f, 0xb5, 0x85, 0x3e, 0x74, 0x54, 0x5c, 0x3d,
  0xa9, 0x77, 0x77, 0xbe, 0x3a, 0xff, 0xb5, 0xbb, 0x0c, 0x73, 0x0f, 0x3e,
  0x2a, 0xb5, 0x04, 0xbe, 0x44, 0xac, 0x08, 0xbe, 0xcb, 0x06, 0x58, 0xbe,
  0xad, 0x5b, 0xfe, 0xbd, 0xe4, 0x3f, 0xed, 0xbc, 0x33, 0x86, 0xaf, 0x39,
  0x48, 0xed, 0x62, 0xbe, 0xc0, 0x4a, 0x8c, 0xbd, 0xc7, 0x79, 0x83, 0x3d,
  0xb6, 0xd7, 0xc4, 0xbc, 0x9f, 0x8c, 0xa9, 0x3e, 0x95, 0x24, 0xc5, 0x3c,
  0xc0, 0xda, 0xf7, 0x3c, 0xb4, 0x45, 0x47, 0xbe, 0xb2, 0x81, 0x53, 0x3d,
  0x4b, 0xe5, 0xe9, 0xbd, 0x2f, 0x63, 0x5f, 0xbe, 0x7b, 0x95, 0x3d, 0xbd,
  0x50, 0x78, 0xea, 0xbc, 0x19, 0x49, 0x80, 0xbe, 0x43, 0x0e, 0xcc, 0xbd,
  0xd9, 0x19, 0x17, 0xbe, 0xcd, 0xfd, 0x78, 0x3c, 0xc5, 0x8c, 0x3a, 0x3e,
  0x5d, 0x34, 0xad, 0x3d, 0xa0, 0xa3, 0x2b, 0x3e, 0xdc, 0x2f, 0x8c, 0x3e,
  0xa6, 0x08, 0x2a, 0xbd, 0xd6, 0x7b, 0xf4, 0xbd, 0x67, 0x99, 0xcf, 0x3d,
  0x62, 0xe5, 0xfd, 0xbd, 0x2a, 0x14, 0x24, 0xbd, 0x94, 0xa4, 0x58, 0xbe,
  0x07, 0x47, 0x4b, 0x3d, 0xb2, 0x27, 0x26, 0xbd, 0x91, 0xc9, 0x54, 0xbd,
  0x11, 0xf7, 0x34, 0xbe, 0xb0, 0x26, 0xfc, 0x3d, 0xee, 0x12, 0x29, 0xbe,
  0x5c, 0x94, 0x85, 0x3d, 0xde, 0x3e, 0x2e, 0x3e, 0xbb, 0xd8, 0x9d, 0xbd,
  0xd4, 0x28, 0x12, 0x3e, 0xcd, 0xbc, 0x17, 0xbe, 0xaf, 0xf8, 0x8b, 0x3e,
  0xfd, 0xf8, 0x47, 0xbe, 0x74, 0x61, 0x62, 0xbd, 0xf6, 0x75, 0xb7, 0xbe,
  0x11, 0xa2, 0xfd, 0xbd, 0x9f, 0xe3, 0xcf, 0xbd, 0x62, 0xfb, 0xb7, 0x3d,
  0x3d, 0x05, 0xbf, 0x3c, 0x24, 0x2c, 0x8d, 0xbe, 0xa4, 0xbb, 0x8c, 0xbd,
  0x49, 0xa6, 0xfa, 0x3d, 0x92, 0x98, 0x02, 0x3e, 0x8a, 0xb0, 0x35, 0xbe,
  0x60, 0x2b, 0xb9, 0xbc, 0xe9, 0x88, 0xb3, 0xbd, 0xe8, 0xba, 0xde, 0x3d,
  0x09, 0x3d, 0x84, 0xbd, 0x65, 0xf3, 0x0a, 0x3e, 0x67, 0x0c, 0x24, 0xbe,
  0xbd, 0x3f, 0x0e, 0xbe, 0xd7, 0x50, 0xdb, 0xbd, 0x9b, 0x95, 0x5b, 0xbe,
  0x07, 0xe3, 0xbb, 0xbd, 0x18, 0x68, 0x07, 0xbe, 0x9d, 0xc5, 0x0e, 0xbd,
  0x78, 0xf5, 0x47, 0xbd, 0x4c, 0x0e, 0xbf, 0xbd, 0x70, 0x8b, 0xfe, 0x3d,
  0x8f, 0x10, 0x3b, 0xbe, 0xbd, 0xea, 0xab, 0xbc, 0x4d, 0x2d, 0xb4, 0xbd,
  0xd0, 0xb5, 0xce, 0x3d, 0xcb, 0x0f, 0xac, 0xbd, 0xa8, 0xe0, 0x1d, 0x3e,
  0xbf, 0xd3, 0x0e, 0x3d, 0xdb, 0xb2, 0xde, 0xbc, 0xa2, 0xe7, 0x32, 0xbe,
  0x2d, 0x86, 0x89, 0xbe, 0x7c, 0x51, 0x4e, 0xbe, 0xad, 0x79, 0x00, 0xbe,
  0x7a, 0x78, 0xc2, 0xbd, 0x9b, 0x5a, 0x09, 0x3d, 0x06, 0x59, 0x71, 0x3d,
  0x26, 0x3e, 0x8c, 0x3d, 0xb4, 0x22, 0x57, 0xbe, 0x31, 0x0c, 0xa7, 0x3d,
  0xa6, 0xc1, 0xf3, 0x3d, 0xd1, 0x40, 0x5e, 0xbe, 0x07, 0x3e, 0x44, 0x3d,
  0x01, 0xf8, 0xd3, 0x3c, 0xbf, 0xf9, 0x27, 0x3d, 0x6f, 0xda, 0x7f, 0xbd,
  0x4e, 0x06, 0x7a, 0xbe, 0x9a, 0x2c, 0x1c, 0x3c, 0x23, 0x0e, 0xda, 0xbc,
  0x02, 0x00, 0x90, 0xbd, 0x8a, 0x36, 0x17, 0xbe, 0x71, 0x8f, 0x19, 0x3e,
  0x42, 0x9d, 0xe5, 0xbd, 0x91, 0xdf, 0x20, 0xbd, 0x27, 0x3c, 0x69, 0xbe,
  0x18, 0xfe, 0xd6, 0xbd, 0x2d, 0xcc, 0x28, 0x3d, 0x26, 0xdb, 0x3b, 0xbd,
  0x12, 0x77, 0x21, 0xbe, 0x7e, 0xdf, 0x58, 0xbe, 0xcd, 0xcc, 0xf5, 0xbd,
  0x5c, 0x41, 0xba, 0x3d, 0xff, 0x59, 0x84, 0x3c, 0x9d, 0x68, 0x07, 0x3b,
  0x80, 0xc1, 0x27, 0x3e, 0x6a, 0xb3, 0xe3, 0xbb, 0x96, 0x46, 0x1e, 0xbe,
  0xb8, 0x59, 0xfe, 0xbd, 0x72, 0xa7, 0xb1, 0xbc, 0xe8, 0x06, 0xb7, 0x3d,
  0x87, 0xcc, 0x92, 0xbe, 0xfc, 0x70, 0x43, 0xbd, 0x0f, 0xa0, 0xea, 0x3d,
  0x22, 0x46, 0xa2, 0xbd, 0xb8, 0xea, 0xef, 0x3d, 0xc9, 0x23, 0xb2, 0x3d,
  0xc8, 0xc3, 0x98, 0x3c, 0xfb, 0xf5, 0x1a, 0x3e, 0xf7, 0x4c, 0x5f, 0xbe,
  0xaa, 0x5d, 0x90, 0xbc, 0x37, 0x50, 0x1d, 0xbe, 0xfd, 0x47, 0x2f, 0xbd,
  0x09, 0xe1, 0x72, 0x3b, 0xf2, 0x16, 0x00, 0x3e, 0x1f, 0x61, 0x0c, 0xbd,
  0x30, 0x7c, 0x0c, 0x3c, 0x15, 0xa5, 0x93, 0xbe, 0xe4, 0xac, 0x2a, 0x3e,
  0x0a, 0xcc, 0xb3, 0x3d, 0x7e, 0x3b, 0x4a, 0xbe, 0x98, 0x2f, 0xc1, 0xbd,
  0xff, 0xc2, 0xda, 0x3d, 0xa2, 0x58, 0x8e, 0xbb, 0xf6, 0xa6, 0x84, 0x3d,
  0xf8, 0xdf, 0xb8, 0xbd, 0xf1, 0x48, 0x66, 0xbc, 0x06, 0x54, 0x40, 0xbe,
  0x48, 0xfb, 0x01, 0xbd, 0x51, 0x8b, 0x86, 0x3d, 0x9e, 0x4c, 0x04, 0xbe,
  0x7b, 0xe4, 0x41, 0x3d, 0xc6, 0xa3, 0xfd, 0xbd, 0xf1, 0x95, 0xac, 0xbd,
  0xff, 0x4b, 0x8d, 0x3b, 0x5a, 0x9d, 0xae, 0x3d, 0xa5, 0x85, 0x36, 0xbe,
  0x35, 0x12, 0x24, 0x3e, 0xb2, 0xe1, 0x54, 0xbe, 0x7a, 0x58, 0x35, 0xbd,
  0xd1, 0x0d, 0x61, 0x3d, 0x92, 0xd6, 0x34, 0xbe, 0x2f, 0xa7, 0x1e, 0xbe,
  0x84, 0x28, 0xf7, 0xbd, 0xc8, 0xc4, 0xeb, 0xbd, 0xb7, 0x35, 0xe8, 0xbd,
  0x82, 0xf2, 0xd5, 0xbc, 0x2d, 0xb9, 0x30, 0xbe, 0x83, 0x32, 0xf0, 0xbd,
  0x3f, 0x61, 0x7b, 0xbe, 0x60, 0xf9, 0x98, 0xbe, 0x31, 0x2d, 0xa2, 0xbd,
  0x4f, 0x0e, 0x41, 0xbe, 0xd9, 0xbc, 0x82, 0xb9, 0xbd, 0x47, 0x4f, 0x3c,
  0x06, 0x8d, 0xbf, 0x3d, 0x5d, 0xcc, 0x11, 0x3d, 0x70, 0x1b, 0xa5, 0xbe,
  0xa0, 0xfc, 0x98, 0xbe, 0xa4, 0x31, 0xbb, 0xbd, 0x72, 0xe7, 0x01, 0x3e,
  0x11, 0x02, 0x2d, 0xbe, 0xad, 0x88, 0x83, 0xbe, 0x83, 0x37, 0x10, 0xbc,
  0xa9, 0x03, 0x35, 0x3e, 0x70, 0xfc, 0x85, 0xbe, 0xef, 0xb3, 0x6b, 0xbe,
  0xa1, 0x8e, 0xa6, 0xbd, 0xb8, 0x69, 0x98, 0xbd, 0xca, 0xe7, 0x7b, 0xbd,
  0xb4, 0x60, 0x18, 0x3f, 0xf1, 0x7c, 0x78, 0x3e, 0x7d, 0xb7, 0xae, 0xbd,
  0x9e, 0xff, 0x56, 0xbe, 0x5e, 0x65, 0xb3, 0x3d, 0x7e, 0xf5, 0x1d, 0xbd,
  0xb2, 0xfe, 0xc1, 0x3e, 0xb3, 0xde, 0x91, 0xbe, 0x5e, 0x20, 0x83, 0xbe,
  0x44, 0x65, 0x53, 0xbc, 0xc1, 0xaf, 0x95, 0x3d, 0xb5, 0x17, 0x0f, 0xbe,
  0xf0, 0xab, 0x1c, 0x3d, 0x99, 0xe7, 0x29, 0xbe, 0x33, 0x63, 0x3f, 0xbe,
  0x1b, 0x2a, 0xcb, 0xbd, 0xbd, 0xd1, 0x96, 0x3e, 0xaf, 0x63, 0x28, 0x3e,
  0xfa, 0xa0, 0x5c, 0x3d, 0x90, 0xb0, 0x93, 0xbe, 0x6c, 0xe1, 0x57, 0x3d,
  0x39, 0x31, 0xbe, 0x3d, 0xae, 0xd4, 0xb9, 0x3b, 0x3d, 0xc6, 0xb4, 0xbd,
  0x6e, 0xbb, 0x2c, 0x3d, 0xb7, 0x4e, 0xdb, 0x3d, 0xf6, 0x15, 0x08, 0x3e,
  0x42, 0x73, 0x87, 0xbe, 0xda, 0x4a, 0xe1, 0xbd, 0x3b, 0xb1, 0x24, 0x3e,
  0xbf, 0xf8, 0xc9, 0x3d, 0x40, 0x3e, 0x04, 0x3d, 0xc5, 0xb8, 0x80, 0x3e,
  0xbe, 0x77, 0x92, 0x3e, 0x2f, 0xcb, 0x23, 0xbe, 0x7f, 0xde, 0x54, 0xbd,
  0x74, 0x23, 0x88, 0xbe, 0x99, 0xe9, 0x1b, 0x3d, 0x82, 0xeb, 0xba, 0x3e,
  0x17, 0xbd, 0xfc, 0xbd, 0x6b, 0x2b, 0x24, 0x3e, 0x89, 0xef, 0xd0, 0xbd,
  0xd2, 0x09, 0xec, 0x3e, 0x39, 0xd2, 0x48, 0xbb, 0x52, 0xe0, 0x44, 0x3e,
  0xe7, 0x8c, 0xaa, 0xbd, 0xb1, 0x65, 0xd1, 0x3d, 0x3e, 0xb5, 0x26, 0x3d,
  0xdb, 0xc1, 0xf3, 0x3d, 0xcd, 0x42, 0xcd, 0x3c, 0x59, 0xaf, 0x7c, 0x3d,
  0x1e, 0x4f, 0x36, 0xbe, 0xaf, 0x74, 0x95, 0xbd, 0xcb, 0xce, 0x14, 0xbd,
  0x11, 0x76, 0xb5, 0x3e, 0x38, 0x67, 0x9d, 0xbe, 0xee, 0xa5, 0x25, 0xbc,
  0x1e, 0x36, 0x34, 0x3c, 0x5c, 0x1a, 0xcd, 0x3e, 0x79, 0x3d, 0xee, 0xbc,
  0x7c, 0x3f, 0x2a, 0x3d, 0x56, 0x49, 0x11, 0xbe, 0x25, 0xa0, 0xb4, 0xbd,
  0xb9, 0x75, 0x48, 0xbd, 0x62, 0x93, 0x35, 0x3e, 0x33, 0xca, 0xed, 0x3d,
  0x3e, 0xef, 0x41, 0xbe, 0x60, 0x19, 0x91, 0xbe, 0x0f, 0xc1, 0x47, 0xbd,
  0xfd, 0x1e, 0x11, 0xbe, 0x99, 0x97, 0xef, 0x3d, 0x96, 0x93, 0xc0, 0xbc,
  0x37, 0x91, 0x2a, 0xbe, 0x36, 0x57, 0xed, 0xbb, 0xd1, 0x8d, 0x7b, 0xbe,
  0x58, 0x40, 0x21, 0xbd, 0x89, 0x52, 0x58, 0xbe, 0xd6, 0xae, 0xf5, 0x3d,
  0xbb, 0xcc, 0x07, 0x3e, 0xa4, 0x4a, 0x35, 0xbd, 0x50, 0xdb, 0x6d, 0x3e,
  0x55, 0x29, 0xf3, 0x3d, 0x6b, 0x4e, 0x78, 0x3d, 0x9c, 0xf9, 0xfc, 0xbd,
  0x0e, 0x99, 0xc2, 0x3d, 0xc4, 0x96, 0x86, 0xbe, 0x89, 0xfc, 0x68, 0x3d,
  0x16, 0xcc, 0x05, 0xbe, 0x79, 0xe2, 0x24, 0x3e, 0xa0, 0x49, 0x9d, 0xbd,
  0x64, 0x7c, 0xd4, 0x3c, 0xd5, 0x32, 0x40, 0xbe, 0xb8, 0xb3, 0x84, 0xbe,
  0xba, 0xa3, 0x47, 0x3e, 0x91, 0xc2, 0x86, 0x3e, 0xc3, 0x43, 0x10, 0xbe,
  0xac, 0xb8, 0x61, 0x3d, 0x11, 0x08, 0x94, 0xbe, 0x24, 0x86, 0x60, 0xbc,
  0xb5, 0x47, 0x78, 0xbe, 0xf6, 0x09, 0x79, 0x3e, 0xf1, 0x99, 0x10, 0x3d,
  0xd3, 0xfe, 0xdf, 0xbd, 0x9a, 0xe7, 0xa8, 0xbd, 0x13, 0x90, 0x32, 0xbd,
  0x5b, 0x63, 0xc4, 0x3d, 0xcd, 0x32, 0x15, 0x3e, 0xae, 0x9d, 0xae, 0x3c,
  0xd8, 0x3b, 0xf1, 0x3d, 0xdf, 0xd5, 0x2f, 0xbe, 0x2e, 0x3f, 0xca, 0x3d,
  0x98, 0x22, 0x40, 0x3e, 0xf8, 0x29, 0x56, 0x3d, 0x2e, 0x67, 0x39, 0x3d,
  0x4b, 0x13, 0x41, 0xbe, 0xaa, 0x3c, 0x9b, 0xbd, 0x62, 0x69, 0x92, 0x3d,
  0x98, 0x2e, 0xb9, 0xbd, 0x7f, 0x9e, 0x6a, 0x3e, 0x1f, 0x9f, 0xfb, 0x3d,
  0x7c, 0xa4, 0x8b, 0x3d, 0x71, 0xde, 0x25, 0x3e, 0x91, 0xfa, 0x12, 0xbe,
  0x50, 0xdf, 0x3b, 0xbd, 0x3e, 0x94, 0x5b, 0x3e, 0xd5, 0x80, 0x5d, 0xbd,
  0xe2, 0xe1, 0x14, 0x3e, 0xed, 0x7e, 0x4b, 0x3e, 0xbf, 0x57, 0x0d, 0xbe,
  0xb5, 0xbf, 0x9f, 0xbc, 0x50, 0x33, 0x53, 0xbe, 0xfe, 0x52, 0x27, 0x3d,
  0x1a, 0xe9, 0xe3, 0xbd, 0x2b, 0x7e, 0xf7, 0xbd, 0xfb, 0xa7, 0x4e, 0xbd,
  0x03, 0xe9, 0xbf, 0x3c, 0x1b, 0x1a, 0x61, 0xbe, 0xe1, 0x4d, 0x69, 0x3d,
  0x02, 0x5e, 0x05, 0xbe, 0xe4, 0xc0, 0x27, 0xbe, 0x6f, 0xbd, 0x9d, 0x3d,
  0x58, 0x7f, 0x06, 0x3e, 0xc2, 0xd4, 0x21, 0xbe, 0xe9, 0xe8, 0x39, 0x3d,
  0x9a, 0xa0, 0x10, 0x3e, 0x85, 0xde, 0x56, 0xbe, 0xf2, 0x39, 0x4f, 0xbe,
  0x9f, 0x49, 0xb8, 0xbd, 0x0f, 0x01, 0xb2, 0xbd, 0xe8, 0x31, 0xe2, 0x3b,
  0xca, 0x98, 0x10, 0x3e, 0xaf, 0xba, 0x90, 0xbd, 0xf5, 0xe4, 0x05, 0xbe,
  0x46, 0x57, 0x21, 0xbe, 0xf9, 0x66, 0x08, 0x3e, 0x54, 0xc5, 0x4a, 0x3e,
  0x02, 0x86, 0x19, 0x3e, 0xf7, 0x43, 0x33, 0x3e, 0xed, 0x07, 0x4b, 0x3e,
  0xe9, 0x46, 0x6f, 0x3e, 0x32, 0x29, 0x4e, 0x3e, 0xb3, 0x2b, 0x98, 0xbe,
  0xac, 0xa3, 0x90, 0xbc, 0xf1, 0x67, 0x83, 0xbd, 0x01, 0x68, 0x82, 0x3d,
  0xcc, 0x44, 0x1d, 0xbd, 0xbf, 0x20, 0x38, 0x3e, 0x63, 0x75, 0xb7, 0xbd,
  0x04, 0x22, 0x2a, 0xbd, 0x5c, 0x66, 0x4e, 0x3d, 0xee, 0x8a, 0x49, 0x3e,
  0xa3, 0x98, 0x3f, 0xbe, 0x9b, 0xcb, 0x7d, 0x3e, 0x45, 0x04, 0xa9, 0x3d,
  0x44, 0xaf, 0xc4, 0x3d, 0x41, 0xb7, 0xb0, 0x3e, 0x7d, 0x24, 0x20, 0xbe,
  0xf3, 0x73, 0xd0, 0xbd, 0x7a, 0xef, 0x7d, 0xbe, 0xe3, 0xd9, 0x0c, 0xbe,
  0x2d, 0xff, 0xdf, 0xbd, 0x87, 0x46, 0x85, 0xbe, 0xd7, 0x51, 0xd1, 0xbd,
  0xbe, 0x6a, 0x03, 0xbe, 0x6f, 0xb3, 0xf6, 0xbd, 0x36, 0x1a, 0x12, 0x3e,
  0x1a, 0x2b, 0x42, 0x3e, 0xeb, 0x45, 0x44, 0xbd, 0x16, 0xc5, 0x63, 0xbe,
  0x8e, 0xdf, 0x56, 0x3e, 0x27, 0x0a, 0x8e, 0x3e, 0x2a, 0xa0, 0xed, 0xbd,
  0x49, 0x54, 0x52, 0x3d, 0x0d, 0x75, 0x29, 0xbe, 0x6f, 0x22, 0x49, 0xbe,
  0x30, 0x2b, 0xc4, 0xbd, 0x35, 0x2c, 0xf8, 0xbb, 0x7e, 0x87, 0xf6, 0x3c,
  0xf3, 0x0a, 0x93, 0x3d, 0x25, 0x0d, 0x85, 0x3d, 0x88, 0x25, 0x7c, 0xbe,
  0x60, 0x68, 0x02, 0xbe, 0x35, 0xb8, 0xc9, 0xbd, 0x09, 0x48, 0xd2, 0xbd,
  0x43, 0x1d, 0x58, 0xbe, 0xc3, 0x31, 0xcd, 0x3d, 0xe6, 0xe5, 0xaf, 0xbd,
  0x44, 0xa6, 0x17, 0x3c, 0x52, 0x9c, 0x85, 0xbd, 0x8f, 0x46, 0xb8, 0x3d,
  0xbe, 0x73, 0x34, 0xbe, 0x08, 0x59, 0x06, 0xbe, 0x04, 0xc3, 0xdf, 0xbd,
  0x21, 0xad, 0xe9, 0xbd, 0x06, 0x0f, 0x01, 0x3f, 0x49, 0xc1, 0x90, 0xbe,
  0xf6, 0x3e, 0xc7, 0xbd, 0xc2, 0xcb, 0x51, 0xbe, 0x52, 0xc5, 0xa4, 0x3e,
  0xe4, 0x5a, 0x4d, 0xbe, 0xa8, 0xb5, 0x65, 0xbc, 0xb9, 0xa9, 0x7a, 0xbe,
  0xd1, 0xb7, 0x98, 0x3c, 0x25, 0xec, 0x64, 0xbe, 0x01, 0x7c, 0xdd, 0x3e,
  0x52, 0x92, 0x6d, 0x3e, 0x3b, 0x1d, 0x59, 0xbe, 0x9e, 0x7b, 0xb6, 0xbe,
  0xa3, 0x4d, 0x9b, 0xbd, 0x9f, 0xdd, 0x4f, 0x38, 0xd1, 0x2c, 0xab, 0x3e,
  0x8e, 0xbd, 0x34, 0xbe, 0x62, 0x5c, 0x94, 0xbe, 0x6b, 0xd0, 0x6d, 0x3c,
  0x54, 0x61, 0x91, 0x3e, 0x51, 0x01, 0x5e, 0xbe, 0x61, 0xd6, 0x15, 0x3e,
  0x5b, 0x02, 0x8c, 0x3e, 0x3a, 0x17, 0xd0, 0xbd, 0x95, 0x67, 0xe3, 0xbc,
  0xb0, 0xbe, 0x44, 0x3f, 0xbd, 0x07, 0xf8, 0x3e, 0xef, 0xb5, 0x35, 0xbe,
  0xb0, 0x79, 0x1d, 0xbe, 0xae, 0x67, 0x0c, 0xbe, 0xbf, 0x9b, 0x44, 0xbe,
  0xcd, 0x53, 0xca, 0x3e, 0x1f, 0xd4, 0xac, 0xbd, 0x5f, 0xb1, 0xfd, 0xbc,
  0xcd, 0x04, 0x68, 0xbe, 0x74, 0x9e, 0x3f, 0x3d, 0x65, 0x9c, 0x8b, 0xbe,
  0x3d, 0x7a, 0x4f, 0x3d, 0x44, 0x4f, 0xcd, 0x3e, 0xf5, 0xcd, 0x7f, 0xbe,
  0x32, 0x35, 0x71, 0xbe, 0x19, 0xbb, 0x1f, 0x3f, 0xab, 0xbf, 0xf6, 0x3e,
  0x92, 0x3f, 0xf0, 0x3d, 0x19, 0x5b, 0xa8, 0xbe, 0xae, 0xfe, 0x1a, 0xbe,
  0x69, 0x25, 0xa9, 0xbe, 0x29, 0x5a, 0x60, 0x3e, 0x0d, 0x15, 0xa9, 0xbe,
  0x05, 0x83, 0xec, 0x3d, 0xf6, 0xf4, 0xe5, 0x3d, 0xb2, 0x5f, 0x70, 0x3e,
  0x53, 0x39, 0x7a, 0xbd, 0xc2, 0xc9, 0x16, 0xbe, 0x8c, 0xa0, 0xe6, 0x3d,
  0xc0, 0x48, 0x7a, 0xbd, 0x45, 0xc5, 0x49, 0xbe, 0x0c, 0xde, 0x0f, 0x3f,
  0x62, 0xb1, 0xce, 0x3e, 0x55, 0xc6, 0xef, 0xbc, 0xf0, 0xb1, 0xaa, 0xbe,
  0x64, 0x99, 0x4e, 0xbe, 0x0e, 0xed, 0xa5, 0xbe, 0x16, 0x01, 0x8e, 0x3e,
  0xb0, 0x50, 0xef, 0xbd, 0xef, 0xac, 0xa1, 0xbb, 0xb1, 0x0c, 0x21, 0xbe,
  0x57, 0x89, 0x83, 0xbe, 0x42, 0x78, 0x4b, 0xbe, 0xef, 0x35, 0xc7, 0x3b,
  0xa1, 0x52, 0xfb, 0xbd, 0x1c, 0xba, 0xd1, 0x3d, 0x8d, 0x41, 0xe5, 0xbc,
  0x80, 0x57, 0x72, 0x3f, 0x8f, 0xac, 0xf5, 0x3d, 0x7a, 0x15, 0x58, 0xbe,
  0x07, 0x60, 0x75, 0xbe, 0x62, 0x7d, 0xd6, 0xbd, 0x87, 0x34, 0xb4, 0xbe,
  0xa2, 0x78, 0xc7, 0x3e, 0xfc, 0x5a, 0x53, 0x3d, 0x35, 0x3a, 0x17, 0xbe,
  0x12, 0xea, 0x8b, 0xbe, 0x89, 0x1a, 0xa6, 0xbc, 0xc1, 0x2d, 0x20, 0x3d,
  0xbe, 0xef, 0x3e, 0xbd, 0xc6, 0xf4, 0x2f, 0x3d, 0x69, 0x4a, 0x84, 0x3c,
  0xe7, 0x80, 0x48, 0xbd, 0xe6, 0x1b, 0x9f, 0xbe, 0xc8, 0x6b, 0x04, 0x3f,
  0x1f, 0x41, 0x86, 0xbe, 0x62, 0xb1, 0xf4, 0xbd, 0x93, 0x53, 0x5a, 0xbd,
  0xb9, 0x71, 0x1d, 0xbd, 0xc8, 0x8a, 0x90, 0x3e, 0x23, 0xe1, 0x54, 0xbe,
  0x48, 0x53, 0xd2, 0xbd, 0x5c, 0xbd, 0xbe, 0xbd, 0xef, 0xb6, 0x43, 0xbe,
  0x5b, 0x7d, 0x5e, 0xbe, 0xb2, 0x7c, 0xa2, 0xbd, 0x42, 0x87, 0x08, 0xbe,
  0x61, 0xd5, 0xe9, 0x3d, 0x8e, 0x32, 0x50, 0xbd, 0xb2, 0x7f, 0x84, 0xbd,
  0x46, 0x61, 0xb3, 0xbd, 0xfb, 0x1e, 0xb4, 0x3d, 0xed, 0xe8, 0x6e, 0xbe,
  0x5d, 0xec, 0x31, 0xbe, 0x8e, 0x81, 0xa8, 0xbc, 0x75, 0x0e, 0x7e, 0xbb,
  0x24, 0x5b, 0x80, 0xbd, 0x39, 0x25, 0x13, 0x3b, 0xb5, 0x71, 0x72, 0xbc,
  0x14, 0x5b, 0x12, 0xbb, 0x24, 0xb6, 0xbd, 0xbc, 0x8e, 0x1a, 0x6d, 0xbe,
  0xe1, 0xff, 0x17, 0xbe, 0x29, 0xfa, 0x08, 0xbc, 0x0a, 0x0e, 0x3c, 0xbd,
  0x89, 0xa5, 0xe7, 0x3d, 0xcc, 0x77, 0x4f, 0x3a, 0x60, 0x6d, 0x04, 0xbe,
  0xe9, 0x1f, 0x76, 0xbd, 0x6a, 0x4c, 0xc4, 0x3d, 0xb6, 0x11, 0x6b, 0x3d,
  0x66, 0xa9, 0x76, 0xbe, 0x00, 0x05, 0x17, 0xbe, 0xee, 0x64, 0x1e, 0x3e,
  0x8b, 0x3c, 0xc9, 0xbd, 0x3a, 0x8c, 0xff, 0x3d, 0x62, 0x7a, 0x82, 0xbe,
  0xfe, 0x6e, 0x14, 0x3e, 0x4d, 0x82, 0x83, 0x3d, 0x0a, 0x33, 0x52, 0xbc,
  0x9a, 0x79, 0x52, 0xbd, 0xae, 0xa2, 0x17, 0xbe, 0xeb, 0x95, 0xbe, 0x3d,
  0x80, 0x02, 0x29, 0xbe, 0x8e, 0x5d, 0x94, 0xbd, 0x06, 0xb1, 0x0e, 0xbd,
  0xa6, 0xf5, 0x1d, 0x3d, 0x74, 0x1a, 0x38, 0xbe, 0x94, 0x7e, 0x84, 0xbe,
  0x9b, 0x9e, 0x49, 0xbe, 0x04, 0xc1, 0x7d, 0x3d, 0x29, 0x6c, 0xfa, 0x3d,
  0x9f, 0x8c, 0x59, 0xbe, 0x1a, 0x44, 0x22, 0x3d, 0x53, 0x7e, 0x1a, 0x3e,
  0xcc, 0x92, 0x15, 0xbe, 0x31, 0x06, 0xde, 0x3d, 0x58, 0x2f, 0x26, 0x3d,
  0x2e, 0xda, 0x13, 0x3e, 0xea, 0x7b, 0x2a, 0x3d, 0x4e, 0x34, 0x9a, 0xbe,
  0xf6, 0xce, 0xfb, 0xbb, 0xfa, 0x5f, 0x3c, 0xbe, 0x7a, 0x81, 0x89, 0xbd,
  0xd2, 0xa1, 0x41, 0xbd, 0x94, 0xbf, 0xd1, 0xbc, 0xa3, 0x02, 0x67, 0xbc,
  0x8a, 0xe1, 0xd6, 0x3d, 0xcf, 0x97, 0x97, 0xbe, 0x9a, 0x3f, 0xb1, 0xbd,
  0x0d, 0xcd, 0xb7, 0xbd, 0x72, 0x6b, 0xc6, 0xbd, 0x0c, 0xd7, 0x90, 0xbd,
  0x5a, 0xea, 0x6d, 0xbe, 0xdb, 0x08, 0x4e, 0xbe, 0x98, 0x37, 0x1e, 0x3d,
  0x77, 0x9d, 0x36, 0x3a, 0x1d, 0x84, 0xd9, 0x3c, 0x85, 0x5a, 0x7c, 0x3d,
  0x6c, 0x28, 0x1d, 0x3e, 0x17, 0x49, 0xe2, 0x3c, 0x16, 0x01, 0x00, 0x3e,
  0x8c, 0xe5, 0x1c, 0x3c, 0xdb, 0x1a, 0x4f, 0xbe, 0x39, 0xd1, 0x29, 0xbe,
  0x39, 0xd2, 0xb6, 0x3d, 0x9e, 0xbf, 0xf6, 0xbd, 0x5d, 0x90, 0x14, 0x3e,
  0x7f, 0x29, 0xa6, 0xbd, 0xf7, 0x0a, 0x8b, 0x3c, 0xaa, 0x8c, 0x43, 0xbe,
  0x9c, 0x10, 0x0f, 0x3d, 0x8d, 0x42, 0xe8, 0xbd, 0xf1, 0x01, 0x51, 0xbe,
  0x0b, 0xa1, 0x55, 0xbe, 0xde, 0x6a, 0x32, 0x3d, 0xa0, 0xa0, 0x3b, 0xbe,
  0xb4, 0xb6, 0x3d, 0x3d, 0x17, 0x22, 0x6e, 0xbe, 0x30, 0x49, 0xcb, 0x3d,
  0x1a, 0x97, 0x33, 0xbe, 0xb7, 0x5c, 0x2d, 0x3e, 0x97, 0x72, 0x75, 0x3d,
  0xa1, 0x55, 0x88, 0x3d, 0x79, 0x55, 0xe4, 0x3d, 0xa4, 0x3f, 0x41, 0xbd,
  0x89, 0x0e, 0xb3, 0xbd, 0xa1, 0x42, 0xf7, 0x3d, 0x8b, 0x47, 0x9b, 0xbe,
  0x42, 0x64, 0xe6, 0xbd, 0x2d, 0xce, 0xc8, 0xbd, 0xc2, 0x78, 0x89, 0xbe,
  0x39, 0xea, 0x4c, 0xbd, 0x91, 0x17, 0xec, 0x3e, 0x14, 0x23, 0x57, 0xbd,
  0xc0, 0xb6, 0xe5, 0x3e, 0x87, 0x81, 0x02, 0xbe, 0x42, 0x7f, 0x07, 0xbe,
  0xe0, 0x0e, 0x0c, 0x3f, 0x51, 0xd0, 0xa6, 0x3e, 0x1b, 0x30, 0xc8, 0xbe,
  0xb9, 0x0b, 0x19, 0x3f, 0xc1, 0xa0, 0x22, 0xbf, 0xbf, 0x1d, 0xbd, 0xbe,
  0x1e, 0xed, 0x07, 0x3e, 0xc5, 0x7b, 0xb5, 0x3e, 0xdd, 0xff, 0x12, 0x3f,
  0x1c, 0xa2, 0x14, 0x3f, 0x4f, 0x56, 0x73, 0x3d, 0xd8, 0x5c, 0x21, 0x3c,
  0x75, 0xf2, 0x78, 0x3d, 0x1a, 0x63, 0x76, 0x3e, 0x65, 0x86, 0x03, 0xbe,
  0xe9, 0x3f, 0x71, 0xbe, 0x3f, 0x4f, 0xfc, 0x3e, 0x2c, 0xa2, 0x9a, 0x3e,
  0x40, 0x50, 0x50, 0xbe, 0x2b, 0xe7, 0xcd, 0x3d, 0x62, 0xd3, 0x02, 0xbd,
  0x05, 0x64, 0x5f, 0xbe, 0xf0, 0x59, 0x3c, 0xbd, 0xe1, 0xb3, 0x7c, 0x3e,
  0xe4, 0x59, 0xd6, 0x3d, 0xbd, 0xec, 0x8b, 0x3d, 0xfc, 0xd8, 0x3a, 0x3d,
  0x97, 0x65, 0x5e, 0xbe, 0x4e, 0xa5, 0x26, 0x3e, 0xdf, 0x1b, 0x4e, 0x3e,
  0xfd, 0x93, 0x60, 0x3e, 0x32, 0x71, 0x86, 0xbe, 0x71, 0xf6, 0x2f, 0x3e,
  0x4f, 0x34, 0x87, 0x3e, 0xef, 0x27, 0x53, 0xbc, 0xda, 0x97, 0xac, 0xbd,
  0xeb, 0xa2, 0xbd, 0xbe, 0xda, 0x5c, 0x8c, 0xbe, 0xb4, 0xda, 0x93, 0x3c,
  0xaf, 0x84, 0x80, 0xbd, 0xb1, 0x34, 0x8a, 0xbd, 0xcd, 0x00, 0xa6, 0xbe,
  0x27, 0x4e, 0x2b, 0x3d, 0x04, 0x51, 0x7e, 0xbe, 0x73, 0xa0, 0x6b, 0x3e,
  0xc8, 0x50, 0x6e, 0x3d, 0x31, 0x1e, 0x9a, 0xbd, 0xbb, 0xeb, 0xa4, 0xbd,
  0xb2, 0xd3, 0x5c, 0x3d, 0xbd, 0x13, 0x87, 0x3e, 0xd6, 0xae, 0x0e, 0xbc,
  0x6a, 0xe3, 0xf6, 0xbd, 0x54, 0xf0, 0xd7, 0xbe, 0x9d, 0xa8, 0x1d, 0xbf,
  0x4c, 0xa6, 0x70, 0x3d, 0x15, 0xa2, 0x1d, 0xbe, 0xd2, 0xee, 0xcd, 0xbd,
  0x95, 0x9f, 0x88, 0xbc, 0x24, 0xa7, 0x02, 0x3e, 0xe2, 0xe5, 0x8a, 0xbd,
  0x7f, 0xed, 0x86, 0x3d, 0xd2, 0x2f, 0x64, 0x3e, 0x45, 0xb4, 0x80, 0x3d,
  0x0b, 0xe7, 0x8a, 0xbe, 0xa1, 0xbc, 0xe9, 0x3d, 0xdc, 0xe3, 0xf4, 0x3e,
  0x3f, 0xdb, 0xab, 0xbd, 0xaa, 0x7e, 0xb4, 0xbc, 0x9e, 0xb2, 0x21, 0xbf,
  0xa9, 0xfe, 0x06, 0xbf, 0xaf, 0x5e, 0x75, 0x3d, 0xa2, 0x96, 0xcd, 0xbd,
  0xf9, 0x64, 0x1f, 0xbd, 0x86, 0x63, 0xdd, 0xbc, 0x91, 0xff, 0x4a, 0x3c,
  0x1e, 0x0f, 0x04, 0xbe, 0x72, 0x2c, 0x19, 0x3e, 0x6b, 0x91, 0x8a, 0x3d,
  0xf4, 0xfd, 0x17, 0x3e, 0xce, 0xea, 0x24, 0xbf, 0x23, 0x00, 0x8a, 0x3e,
  0xf8, 0x08, 0x3f, 0x3e, 0xc2, 0x4a, 0x18, 0x3e, 0xc6, 0xd0, 0x98, 0xbe,
  0x67, 0x97, 0x9d, 0xbe, 0xef, 0x3f, 0xa5, 0xbe, 0x04, 0x8d, 0x1b, 0xbd,
  0xc0, 0xaa, 0xc1, 0xbd, 0x30, 0x5f, 0x87, 0xbd, 0x31, 0x43, 0xf3, 0x3e,
  0x03, 0xf4, 0x14, 0x3c, 0x1d, 0xb4, 0x20, 0x3e, 0xc4, 0xda, 0x69, 0xbe,
  0xb3, 0xae, 0x5d, 0x3d, 0x89, 0x0b, 0x1d, 0x3e, 0xb2, 0x24, 0xa1, 0x3e,
  0x1f, 0x50, 0x0e, 0x3e, 0x7f, 0xda, 0x17, 0x3d, 0x45, 0x20, 0x60, 0x3e,
  0xac, 0x65, 0x10, 0x3d, 0xad, 0x87, 0x93, 0xbd, 0x71, 0x79, 0xd6, 0xbd,
  0xec, 0x82, 0x50, 0x3d, 0x74, 0x4e, 0x05, 0xbe, 0x48, 0x8b, 0x4d, 0xbd,
  0xf1, 0x33, 0xba, 0x3d, 0xfc, 0x25, 0xcb, 0x3c, 0xdf, 0xe3, 0xdf, 0x3d,
  0x62, 0xa0, 0x35, 0x3e, 0x4e, 0xb6, 0x26, 0xbe, 0x4a, 0x73, 0x66, 0xbe,
  0x4e, 0x70, 0x16, 0x3e, 0xbe, 0x52, 0x66, 0x3d, 0x75, 0x9c, 0x2a, 0x3d,
  0x6c, 0x7f, 0x22, 0x3d, 0xa9, 0x45, 0xd7, 0x3d, 0x75, 0xe1, 0x14, 0xbd,
  0x73, 0xee, 0xac, 0xbc, 0xd5, 0xc7, 0x87, 0x3c, 0x42, 0x6a, 0xff, 0xbd,
  0xa2, 0xd7, 0x82, 0xbe, 0xf9, 0x24, 0x66, 0x3c, 0x52, 0x98, 0xc9, 0x3d,
  0x48, 0x35, 0x0c, 0xbc, 0x9e, 0x7b, 0x23, 0x3d, 0x72, 0x6b, 0x1e, 0xbe,
  0x72, 0x7e, 0x04, 0xbc, 0x79, 0xcc, 0xe7, 0xbd, 0xf9, 0x24, 0x00, 0x3e,
  0x14, 0x45, 0x2b, 0xbe, 0xaa, 0xaf, 0x31, 0xbe, 0x1a, 0xd5, 0x32, 0x3e,
  0x6d, 0x60, 0x32, 0xbd, 0xbb, 0xad, 0x9f, 0xbd, 0x15, 0x40, 0x7f, 0xbe,
  0x9f, 0xc1, 0xae, 0xbd, 0xab, 0xb9, 0xd8, 0x3c, 0x8b, 0x7f, 0xba, 0x3c,
  0x94, 0xa8, 0x83, 0xbe, 0xc3, 0x52, 0x14, 0x3e, 0x0c, 0x24, 0xbd, 0x3d,
  0xc6, 0xb8, 0xd8, 0x3c, 0x03, 0x1d, 0x39, 0xbe, 0xc2, 0xa1, 0x29, 0x3e,
  0x8e, 0x28, 0x83, 0x3d, 0x52, 0xbe, 0xbb, 0xbd, 0xb3, 0x38, 0xc2, 0xbb,
  0x3e, 0x62, 0x1a, 0xbd, 0xe2, 0xc1, 0xad, 0xbd, 0x11, 0xd1, 0x7b, 0x3d,
  0x1e, 0x74, 0x8f, 0x3c, 0x91, 0x71, 0x72, 0xbe, 0xee, 0x5d, 0x7a, 0xbe,
  0xc1, 0x95, 0xab, 0xbd, 0x68, 0x19, 0x01, 0xbe, 0xb6, 0x3d, 0x48, 0x3d,
  0xcf, 0x16, 0xf7, 0xbd, 0x49, 0xc2, 0xa5, 0xbc, 0x18, 0x05, 0x91, 0xbe,
  0x25, 0xe6, 0xe1, 0x3d, 0x91, 0xb3, 0xfa, 0x3d, 0xb9, 0x04, 0x9e, 0xbd,
  0x05, 0xc6, 0xba, 0xbd, 0xf5, 0xac, 0x88, 0xbd, 0x6d, 0x06, 0x89, 0xbd,
  0x0b, 0xe3, 0x9e, 0xbd, 0x68, 0x52, 0x62, 0xbc, 0x18, 0x24, 0xd1, 0x3d,
  0x5e, 0x91, 0x0d, 0x3c, 0x0a, 0xb5, 0x7f, 0xbe, 0xc1, 0x3d, 0x3a, 0xbe,
  0xb4, 0x8c, 0xe0, 0x3c, 0x6d, 0xbf, 0x61, 0xbd, 0xf7, 0x6b, 0xb9, 0xbd,
  0x30, 0x55, 0x84, 0x3d, 0x0c, 0x14, 0x4f, 0xbe, 0x66, 0x11, 0x75, 0xbe,
  0xfc, 0x35, 0xce, 0xbd, 0x8a, 0xe0, 0xe3, 0xbc, 0x50, 0xd9, 0x0c, 0x3e,
  0xd5, 0xc6, 0x28, 0xbe, 0xed, 0x66, 0x93, 0xbd, 0x8a, 0x38, 0xcc, 0xbd,
  0xff, 0x7b, 0xa3, 0xbe, 0xa7, 0xc0, 0xe1, 0x3d, 0xd6, 0x76, 0x1f, 0xbe,
  0x7a, 0x5b, 0x18, 0x3d, 0x0c, 0x6f, 0x9e, 0xbc, 0x39, 0x14, 0xe2, 0xba,
  0x44, 0xb3, 0x5d, 0xbe, 0x11, 0x57, 0x29, 0xbd, 0xdc, 0x10, 0xa6, 0x3d,
  0xbb, 0x1e, 0xb9, 0xbd, 0xfe, 0x47, 0x83, 0x3d, 0x1f, 0x83, 0x08, 0xbe,
  0xde, 0xdb, 0xa0, 0xbc, 0x41, 0x51, 0x6c, 0xbd, 0x2a, 0xfd, 0x0c, 0xbd,
  0x73, 0x7a, 0x94, 0xbe, 0xc2, 0x3a, 0x7e, 0xbe, 0x4f, 0x15, 0x45, 0xbe,
  0x2a, 0x22, 0x19, 0x3e, 0x36, 0xcb, 0x8e, 0x3d, 0x69, 0xef, 0x37, 0xbe,
  0xcb, 0x41, 0x19, 0xbe, 0xb6, 0x36, 0x73, 0x3d, 0x3a, 0x83, 0x8d, 0x3d,
  0x4c, 0xaf, 0x54, 0xbd, 0xd9, 0xe3, 0x80, 0xbe, 0xbe, 0xdf, 0x51, 0xbe,
  0xc4, 0x51, 0xb9, 0xbd, 0x30, 0x70, 0xad, 0xba, 0xb2, 0xaa, 0x67, 0xbe,
  0x89, 0xec, 0x1b, 0xbe, 0xb4, 0x63, 0x36, 0xbe, 0x77, 0x74, 0x7b, 0xbe,
  0x3f, 0x97, 0x69, 0xbc, 0x9c, 0xe9, 0x39, 0x3d, 0x07, 0x39, 0x80, 0xbe,
  0x60, 0x29, 0x14, 0x3f, 0xc4, 0xf8, 0x10, 0x3d, 0x8e, 0xd0, 0x38, 0x3e,
  0x6d, 0xdf, 0x5b, 0xbe, 0x0d, 0x30, 0x49, 0x3e, 0x4e, 0xbe, 0x00, 0x3f,
  0xca, 0x72, 0x29, 0x3f, 0x73, 0x7a, 0x0d, 0x3e, 0x7e, 0xa2, 0x2f, 0x3f,
  0x15, 0xe5, 0xec, 0xbe, 0x4d, 0x94, 0xa4, 0xbe, 0xd0, 0x09, 0xe5, 0xbb,
  0xf2, 0x94, 0x26, 0x3f, 0x21, 0x40, 0xee, 0x3e, 0x9a, 0x16, 0xd6, 0x3e,
  0x5f, 0x13, 0x9a, 0xbe, 0xa7, 0x76, 0x41, 0xbe, 0x1d, 0x4a, 0x05, 0xbe,
  0x96, 0x0f, 0xea, 0x3e, 0xd6, 0x17, 0xc9, 0x3d, 0x97, 0xae, 0xa5, 0x3d,
  0xd2, 0xdf, 0xa2, 0x3e, 0x39, 0x34, 0x9c, 0x3e, 0x29, 0xe7, 0x08, 0xbd,
  0x5b, 0x0a, 0x26, 0x3e, 0xce, 0xa3, 0xe3, 0xbc, 0x8a, 0xc4, 0x4c, 0xbe,
  0x11, 0x47, 0xfc, 0x3d, 0x97, 0x12, 0xb8, 0xbc, 0x87, 0x99, 0x39, 0x3e,
  0x1b, 0x3f, 0x2b, 0xbc, 0x4c, 0xc6, 0xd6, 0xbe, 0xa4, 0x9f, 0x2a, 0xbe,
  0x47, 0x96, 0xaa, 0xbd, 0x44, 0xe8, 0x6c, 0x3e, 0x69, 0x1d, 0xb9, 0x3e,
  0xcc, 0x6c, 0x41, 0x3e, 0x8a, 0x01, 0x81, 0x3e, 0x84, 0xbf, 0x84, 0x3e,
  0x9a, 0xf8, 0xc8, 0x3e, 0x13, 0x45, 0x26, 0xbe, 0x06, 0xe6, 0x6d, 0xbd,
  0x9d, 0x9f, 0x66, 0xbe, 0xd5, 0x8f, 0x05, 0x3e, 0x44, 0xcb, 0xcd, 0xbd,
  0x3a, 0xff, 0x5f, 0x3d, 0x0c, 0x16, 0x9d, 0xbc, 0xcf, 0x55, 0xad, 0xbe,
  0xb6, 0xcb, 0xfe, 0xbd, 0xda, 0x67, 0x6e, 0xbe, 0xa0, 0x2b, 0x8c, 0xbc,
  0x25, 0x00, 0x19, 0x3e, 0x09, 0x8b, 0x18, 0x3e, 0x0b, 0x4c, 0x9b, 0x3e,
  0xe7, 0x16, 0x8b, 0x3d, 0x95, 0xc3, 0x3e, 0x3e, 0x44, 0xba, 0xb5, 0x3c,
  0x12, 0x6c, 0x0f, 0x3d, 0x71, 0xc5, 0x83, 0xbe, 0xe7, 0x1d, 0xb7, 0xbd,
  0x22, 0x46, 0x1b, 0xbd, 0xd6, 0x84, 0xfb, 0xbd, 0xbc, 0xe3, 0x49, 0x3e,
  0x53, 0x31, 0x1e, 0xbe, 0xe3, 0xa2, 0xc3, 0xbd, 0x95, 0x07, 0x21, 0x3e,
  0x4d, 0xdb, 0xb9, 0x3e, 0xdd, 0xa5, 0x5d, 0x3e, 0x24, 0x89, 0x14, 0x3d,
  0x44, 0x6d, 0x4d, 0x3d, 0xe3, 0xa9, 0xb9, 0x3e, 0xfc, 0xce, 0x25, 0x3d,
  0x0f, 0xa5, 0x6b, 0xbe, 0xc9, 0x4c, 0xf1, 0xbe, 0xaf, 0xab, 0x80, 0xbe,
  0x31, 0xf6, 0x0a, 0xbd, 0x27, 0x1c, 0xc3, 0xbd, 0xa7, 0x54, 0xe8, 0x3d,
  0x26, 0x6b, 0x28, 0x3e, 0xf1, 0x96, 0x80, 0xbe, 0x93, 0xe9, 0x38, 0xbe,
  0x44, 0xdc, 0x41, 0x3e, 0x01, 0x8b, 0x7a, 0x3e, 0x6c, 0x04, 0x80, 0x3d,
  0x11, 0x9f, 0x19, 0x3d, 0xa3, 0x09, 0x72, 0x3e, 0x8d, 0xac, 0x6d, 0x3e,
  0x6e, 0xe2, 0xd1, 0x3e, 0xc9, 0xe9, 0x30, 0x3d, 0x0d, 0xe6, 0x76, 0xbe,
  0xdb, 0xb9, 0xd7, 0x3d, 0xc3, 0xab, 0x16, 0xbe, 0xc6, 0x5f, 0xab, 0xbc,
  0xdf, 0x5f, 0xc0, 0x3a, 0x37, 0x82, 0x14, 0x3f, 0xfd, 0x41, 0x13, 0xbe,
  0x87, 0x28, 0xec, 0x3c, 0x27, 0x6e, 0x11, 0x3d, 0x22, 0xeb, 0xeb, 0xbd,
  0xad, 0x0f, 0x9d, 0x3e, 0xb5, 0x03, 0xba, 0x3e, 0x90, 0xa2, 0x0d, 0x3c,
  0xc2, 0xbc, 0xa0, 0xbb, 0xbd, 0x54, 0x91, 0x3d, 0x51, 0x4c, 0xac, 0x3d,
  0x44, 0x87, 0xf7, 0xbb, 0xc6, 0xb0, 0x91, 0xbe, 0x2a, 0x0a, 0x24, 0xbd,
  0xc9, 0x68, 0xcd, 0x3d, 0xcf, 0xff, 0x11, 0x3e, 0xaf, 0xb7, 0x25, 0x3e,
  0x60, 0xe1, 0x1c, 0xbe, 0x5c, 0x83, 0xb4, 0x3c, 0x2f, 0xba, 0x24, 0xbe,
  0x10, 0x9a, 0x4c, 0x3d, 0x31, 0x79, 0x86, 0xbe, 0x72, 0x0f, 0x9d, 0x3d,
  0xc7, 0x0d, 0x14, 0x3c, 0x40, 0xe0, 0x95, 0xbc, 0xe1, 0x4a, 0x65, 0xbb,
  0xc1, 0x95, 0x6f, 0xbe, 0xbb, 0xd0, 0x7c, 0xbd, 0x66, 0x4e, 0x1f, 0xbe,
  0x69, 0x1f, 0x56, 0xbe, 0xfd, 0xa6, 0xc1, 0xbd, 0xd2, 0xb0, 0xe2, 0xbc,
  0xdb, 0x91, 0x38, 0x3d, 0xd6, 0x82, 0xcb, 0x3b, 0x84, 0xf9, 0x19, 0x3e,
  0x19, 0xe3, 0x69, 0x3c, 0x24, 0xdf, 0x86, 0x3d, 0x0d, 0x78, 0x22, 0xbe,
  0xd4, 0x7d, 0xb5, 0x3c, 0x7f, 0xda, 0xb7, 0x3a, 0x24, 0x47, 0xd9, 0x3d,
  0x10, 0x61, 0x43, 0xbe, 0x55, 0xbf, 0x6b, 0xbe, 0xac, 0xef, 0x42, 0x3e,
  0x73, 0x46, 0x2a, 0x3e, 0x9d, 0xe3, 0xbd, 0x3c, 0xc4, 0x03, 0x42, 0xbe,
  0xda, 0x68, 0x87, 0x3d, 0x46, 0x8f, 0x7b, 0xbe, 0xe7, 0x54, 0xf2, 0xbc,
  0x81, 0xc8, 0x20, 0xbe, 0xfc, 0xc3, 0x28, 0x3e, 0x58, 0x78, 0x02, 0x3e,
  0x49, 0xce, 0x8d, 0xbd, 0x05, 0xde, 0x49, 0x3e, 0x26, 0x60, 0xcf, 0x3a,
  0x4d, 0x72, 0x8d, 0xbd, 0x68, 0x0d, 0xc8, 0xbd, 0x6c, 0xa1, 0x92, 0xbd,
  0xf2, 0x87, 0x14, 0xbe, 0x4c, 0x29, 0x42, 0xbe, 0x12, 0x5a, 0xb4, 0xbd,
  0x23, 0x27, 0xc6, 0xbd, 0x20, 0xb5, 0xd9, 0x3a, 0xb8, 0x6f, 0x38, 0xbe,
  0x22, 0x31, 0x03, 0x3c, 0xf4, 0xa0, 0x4a, 0xbe, 0x7c, 0x58, 0x04, 0xbe,
  0x85, 0x2a, 0x0f, 0x3d, 0xa6, 0xc5, 0x2a, 0xbe, 0x69, 0xa3, 0x8b, 0xbd,
  0xcc, 0x12, 0x60, 0xbe, 0x2c, 0xb4, 0xc6, 0xbd, 0xec, 0xff, 0x37, 0x3c,
  0xe8, 0xc5, 0x15, 0x3e, 0x68, 0xd8, 0x46, 0xbe, 0xb6, 0xc6, 0x60, 0x3d,
  0x24, 0x82, 0x44, 0x3d, 0xac, 0x08, 0x67, 0xbd, 0x14, 0x5d, 0x4c, 0xbe,
  0x31, 0xfe, 0x1b, 0x3e, 0x86, 0x12, 0x7e, 0xbe, 0xca, 0x0b, 0x8b, 0xbd,
  0x6d, 0xf5, 0x0d, 0xbe, 0x4b, 0x3c, 0xc7, 0xbc, 0xaf, 0x6c, 0x84, 0xbd,
  0xb7, 0x93, 0x12, 0x3d, 0xb8, 0xe4, 0x6a, 0xbe, 0x8e, 0x9f, 0xd4, 0xbd,
  0x0a, 0xa9, 0x66, 0xbe, 0xf3, 0x14, 0xc4, 0xbd, 0x96, 0xec, 0x35, 0xbe,
  0x38, 0x65, 0xd7, 0xbd, 0x32, 0xe4, 0x4d, 0xbe, 0xbd, 0x99, 0x83, 0xbe,
  0x74, 0x43, 0x4d, 0x3c, 0x3b, 0x01, 0xa5, 0x3d, 0xf3, 0x6f, 0xf6, 0x3c,
  0xb3, 0x0b, 0xce, 0xbd, 0xd0, 0x37, 0xac, 0x3d, 0x5a, 0x14, 0x95, 0xbd,
  0x69, 0x9b, 0x61, 0xbb, 0xa4, 0x28, 0xbd, 0x3d, 0xc2, 0x28, 0x17, 0x3e,
  0x33, 0xfe, 0xa8, 0x3c, 0x36, 0x23, 0x8f, 0xbc, 0x1d, 0x70, 0xd9, 0x3d,
  0x38, 0x77, 0xa6, 0xbc, 0x64, 0xb8, 0x7f, 0xbd, 0xb3, 0x49, 0xf5, 0x3c,
  0x3b, 0x05, 0x38, 0x3b, 0xcc, 0x32, 0x46, 0x3d, 0x58, 0x46, 0x85, 0xbe,
  0x41, 0x7e, 0x69, 0xbe, 0xa7, 0x9c, 0x81, 0x3d, 0x64, 0xcf, 0xf2, 0x3d,
  0x38, 0x5e, 0xb9, 0xbd, 0xff, 0xc5, 0x38, 0xbe, 0xa0, 0xb3, 0x10, 0xbe,
  0xc5, 0xdc, 0x69, 0xbe, 0x12, 0x3b, 0x80, 0xbd, 0xdc, 0x1e, 0x78, 0xbe,
  0xb8, 0xdb, 0xf4, 0x3b, 0xec, 0xef, 0x06, 0xbe, 0xfe, 0xb6, 0x11, 0xbe,
  0xd3, 0x2b, 0xff, 0xbd, 0x7f, 0x41, 0x28, 0xbd, 0x97, 0xe5, 0x2d, 0x3c,
  0x1a, 0x5d, 0x16, 0xbd, 0x7a, 0x5b, 0x45, 0xbe, 0xcc, 0xe8, 0xba, 0x3e,
  0xce, 0x88, 0x2d, 0x3e, 0x79, 0x16, 0x56, 0x3e, 0xa1, 0xa8, 0x3d, 0xbe,
  0xb0, 0xe5, 0x8b, 0xbd, 0xb0, 0x62, 0x77, 0x3e, 0xc2, 0x81, 0x88, 0x3e,
  0xe4, 0x21, 0xa1, 0xbe, 0xb7, 0xcd, 0x8c, 0x3e, 0x18, 0x49, 0xcc, 0xbe,
  0x95, 0xda, 0xfe, 0xbd, 0xeb, 0x45, 0x5b, 0xbe, 0x17, 0x9d, 0xca, 0x3e,
  0xe8, 0xb0, 0x9f, 0x3e, 0x37, 0x65, 0xbd, 0x3e, 0xb1, 0x6f, 0x79, 0xbe,
  0x8e, 0xf4, 0xa3, 0x3d, 0x01, 0x1f, 0x5f, 0xbe, 0x0a, 0x72, 0x9b, 0x3e,
  0xbf, 0xec, 0x5d, 0x3e, 0x2e, 0x23, 0x2d, 0xbe, 0x84, 0xc6, 0x93, 0x3e,
  0xf2, 0xbe, 0x0d, 0x3e, 0xeb, 0x41, 0x0b, 0xbd, 0x56, 0x14, 0x3e, 0x3e,
  0xbb, 0x98, 0x87, 0x3d, 0xc8, 0xaa, 0x04, 0xbe, 0xbf, 0x2e, 0x5a, 0xbd,
  0x67, 0xa4, 0x25, 0x3e, 0x12, 0x97, 0x3d, 0x3e, 0x94, 0x64, 0xd2, 0x3b,
  0x38, 0x19, 0xfa, 0xbe, 0xa7, 0x18, 0x71, 0x3d, 0x75, 0xd9, 0xd5, 0x3d,
  0x56, 0x5c, 0xae, 0x3e, 0x9f, 0x21, 0xce, 0x3c, 0x62, 0x58, 0xe7, 0x3e,
  0x4d, 0x0a, 0x94, 0x3e, 0xeb, 0xca, 0x00, 0x3e, 0x84, 0x4a, 0x01, 0x3e,
  0x6b, 0x38, 0x9f, 0x3e, 0x3f, 0xb9, 0x9c, 0xbe, 0xe2, 0xbe, 0x45, 0xbe,
  0x69, 0x43, 0x55, 0xbe, 0x34, 0x81, 0xdd, 0x3c, 0xc5, 0x48, 0x14, 0xbd,
  0x22, 0x58, 0x29, 0x3d, 0xe2, 0x2e, 0x79, 0xbe, 0xc1, 0x24, 0x0d, 0xbe,
  0x43, 0xf6, 0x1e, 0xbe, 0x0d, 0x08, 0xb1, 0xbd, 0xca, 0xa1, 0x05, 0x3e,
  0xb2, 0x7f, 0x0f, 0x3d, 0x02, 0x4f, 0x71, 0x3e, 0x23, 0xb7, 0xc8, 0x3d,
  0x00, 0x7e, 0x94, 0x3e, 0xa3, 0x62, 0x2e, 0x3e, 0x65, 0xf5, 0x60, 0xbe,
  0xbd, 0x10, 0x6d, 0x3d, 0x09, 0xa4, 0xd8, 0xbb, 0x5d, 0x47, 0x16, 0xbe,
  0x3b, 0x1d, 0xc1, 0xbd, 0xf2, 0x44, 0xae, 0x3d, 0x7f, 0xd2, 0x89, 0xbe,
  0xaa, 0x55, 0x8e, 0xbd, 0xdc, 0x2d, 0x86, 0x3e, 0x5a, 0x65, 0x23, 0xbd,
  0x22, 0xda, 0xb9, 0x3d, 0x65, 0x86, 0xf6, 0xb9, 0x79, 0x44, 0x81, 0x3e,
  0xee, 0x8d, 0x1c, 0xbc, 0xa9, 0xc2, 0x7a, 0x3d, 0x13, 0x14, 0x20, 0x3d,
  0x31, 0x39, 0x0a, 0xbe, 0xb2, 0xb3, 0x57, 0xbe, 0x73, 0xa4, 0x1e, 0xbe,
  0x9e, 0x5a, 0x34, 0xbe, 0xc0, 0x0c, 0x90, 0x3d, 0x4b, 0xf5, 0x98, 0x3d,
  0xe9, 0xbe, 0x5b, 0xbe, 0x6a, 0xc9, 0xcc, 0x3d, 0xb0, 0x4f, 0x51, 0xbe,
  0xb3, 0xc4, 0xd1, 0x3c, 0x80, 0xa6, 0xad, 0xbd, 0xfe, 0x4d, 0x0e, 0x3e,
  0xab, 0x29, 0x8a, 0x3d, 0x58, 0x83, 0x8e, 0x3e, 0x63, 0x34, 0xd5, 0x3d,
  0xe7, 0x86, 0xe1, 0x3c, 0x42, 0x3e, 0x1a, 0xbc, 0x27, 0xf8, 0x75, 0xbe,
  0xd8, 0xa7, 0xa3, 0xbd, 0xe5, 0x3d, 0xe3, 0xbd, 0xca, 0xf9, 0x42, 0x3d,
  0x66, 0x53, 0x0f, 0x3f, 0x8b, 0x42, 0xb4, 0xbd, 0x04, 0x3d, 0x88, 0x3e,
  0xa5, 0x41, 0x20, 0x3e, 0x3d, 0x80, 0x4c, 0x3d, 0x73, 0x3c, 0xed, 0xbd,
  0xc2, 0xd2, 0xf3, 0x3e, 0xec, 0xe0, 0xa9, 0x3d, 0x1d, 0x0e, 0xfb, 0x3d,
  0x3a, 0x8c, 0xda, 0x3d, 0x3d, 0x1f, 0x1a, 0xbe, 0xc0, 0x31, 0xe6, 0x3d,
  0x1b, 0x29, 0x02, 0xbd, 0xb4, 0xe3, 0xa0, 0xbd, 0xd8, 0x12, 0x06, 0xbe,
  0x47, 0xcd, 0x67, 0x3c, 0x99, 0x76, 0x71, 0x3e, 0x0a, 0x7c, 0x3f, 0xbe,
  0xd4, 0x3e, 0x04, 0x3f, 0xd5, 0xe7, 0xe8, 0xbc, 0xa2, 0x03, 0xd1, 0x3e,
  0x7a, 0x43, 0x59, 0xbe, 0x67, 0xcf, 0x62, 0x3e, 0x5f, 0xb5, 0xaa, 0x3e,
  0xfd, 0xdb, 0x9a, 0x3e, 0xf0, 0x1b, 0x0f, 0xbe, 0x92, 0xbc, 0x41, 0x3f,
  0x96, 0x60, 0xb1, 0xbe, 0x5e, 0xf9, 0xb0, 0xbe, 0xd4, 0x1a, 0x4c, 0x3e,
  0x2b, 0xba, 0x20, 0x3f, 0x1a, 0x94, 0x0b, 0x3f, 0x9e, 0x40, 0xf9, 0x3e,
  0xa8, 0x79, 0xbd, 0x3a, 0x02, 0x3d, 0x7b, 0x3d, 0x64, 0xba, 0x72, 0x3d,
  0x17, 0x7f, 0x4d, 0x3e, 0x64, 0xa8, 0x5c, 0x3e, 0xc1, 0xf4, 0xa1, 0x3d,
  0xac, 0x2a, 0x59, 0x3e, 0x0f, 0x1c, 0xca, 0x3e, 0xd8, 0x19, 0xfd, 0x3c,
  0x45, 0x46, 0x57, 0x3e, 0x5a, 0x44, 0x4b, 0xbe, 0x39, 0xa2, 0x22, 0x3c,
  0x78, 0x1c, 0x07, 0x3d, 0x98, 0x4c, 0x56, 0x3e, 0x5a, 0x5d, 0xdb, 0x3d,
  0xf4, 0xac, 0x5f, 0xbd, 0xc1, 0x9a, 0x5f, 0xbe, 0xdc, 0x26, 0x2a, 0xbe,
  0x2a, 0x3e, 0xe5, 0x3c, 0xa8, 0xe6, 0x8e, 0x3e, 0x09, 0xaf, 0x00, 0x3f,
  0x1b, 0xf4, 0x2d, 0x3e, 0x1e, 0xcc, 0x97, 0x3b, 0xbf, 0x4a, 0xb8, 0x3d,
  0xbe, 0xcc, 0xbc, 0x3d, 0x23, 0xa1, 0xf1, 0x3d, 0xae, 0xd0, 0x17, 0xbd,
  0xdf, 0x47, 0x88, 0xbd, 0x53, 0xe5, 0x92, 0xbd, 0xeb, 0x22, 0xfe, 0x3c,
  0x44, 0xe6, 0xb5, 0xbd, 0x9a, 0xc0, 0x2b, 0x3d, 0xfe, 0x0d, 0x05, 0xbd,
  0x79, 0x3a, 0x15, 0xbe, 0x8e, 0x66, 0x14, 0x3d, 0xea, 0x57, 0xb1, 0x3d,
  0x39, 0x8a, 0x80, 0x3e, 0x51, 0xd6, 0x95, 0xbe, 0x06, 0x83, 0xaf, 0x3d,
  0x05, 0x13, 0x17, 0x3e, 0xf3, 0x2a, 0x06, 0x3d, 0x05, 0x7f, 0x24, 0x3d,
  0xdc, 0x66, 0x98, 0xbe, 0x53, 0xc3, 0x82, 0xbe, 0x8c, 0xff, 0xf8, 0xbc,
  0x80, 0x3b, 0xc5, 0xbd, 0xd4, 0x51, 0x2f, 0xbe, 0x90, 0x40, 0x66, 0x3e,
  0xb8, 0x6c, 0xb0, 0xbd, 0xe2, 0xd4, 0xea, 0xbd, 0x2c, 0xa9, 0x8f, 0x3e,
  0x54, 0x32, 0xd9, 0x3d, 0xe0, 0xa3, 0x45, 0x3e, 0x1e, 0x6d, 0x72, 0x3e,
  0xef, 0x5c, 0x96, 0xbc, 0x91, 0x22, 0xf8, 0x3d, 0xd4, 0x64, 0x5d, 0x3e,
  0x25, 0xff, 0x1f, 0x3c, 0x83, 0xbb, 0xa5, 0xbe, 0x0b, 0x7a, 0x21, 0xbe,
  0x31, 0x4c, 0x5e, 0xbc, 0x78, 0x60, 0x1c, 0xbd, 0x13, 0x90, 0x32, 0xbd,
  0x89, 0xdf, 0x25, 0x3e, 0x94, 0x16, 0x2f, 0xbe, 0x72, 0xc3, 0xf8, 0xbc,
  0x73, 0x44, 0x2b, 0x3e, 0xbb, 0x90, 0xcb, 0x3d, 0x7d, 0xa8, 0xd0, 0x3e,
  0xfb, 0x6b, 0x38, 0x3e, 0xa4, 0x01, 0x51, 0x3e, 0xaf, 0xa0, 0x28, 0x3e,
  0x3f, 0x25, 0x72, 0x3d, 0x8c, 0xeb, 0x56, 0xbe, 0xba, 0x0d, 0xe8, 0xbe,
  0x33, 0x5f, 0x94, 0xbe, 0x50, 0xe4, 0x2e, 0x3c, 0xc5, 0xbf, 0xb7, 0xbd,
  0xad, 0x58, 0x07, 0xbe, 0x71, 0x50, 0xb8, 0x3e, 0x06, 0xc8, 0x33, 0xbe,
  0x61, 0xe5, 0xa2, 0x3c, 0xfa, 0xde, 0xad, 0xbe, 0x47, 0x7e, 0x3e, 0x3e,
  0xd6, 0xe5, 0x2c, 0x3e, 0x82, 0xdd, 0x06, 0x3f, 0xa3, 0x24, 0x32, 0x3e,
  0x51, 0x8f, 0xbb, 0xbd, 0x32, 0x29, 0x07, 0x3e, 0x74, 0xa6, 0x7f, 0x3d,
  0xf7, 0x60, 0x19, 0x3d, 0x51, 0x1b, 0xe2, 0xbe, 0xd6, 0x99, 0x83, 0x3d,
  0xa0, 0xde, 0x8b, 0xbd, 0xef, 0x92, 0x2e, 0xbd, 0xfb, 0x43, 0x9b, 0xbb,
  0x0a, 0x9b, 0x05, 0xbe, 0x03, 0x65, 0x75, 0xbe, 0x8b, 0xf9, 0x4d, 0x3e,
  0x9e, 0x1a, 0x2f, 0x3e, 0xd5, 0xbc, 0x8b, 0xbe, 0xb6, 0xe7, 0xfe, 0xbd,
  0xb0, 0x4a, 0x04, 0x3e, 0x29, 0x22, 0x1d, 0x3e, 0x30, 0x70, 0x1f, 0xbd,
  0xef, 0x2d, 0xed, 0xbd, 0x27, 0xc5, 0x0c, 0xbe, 0xfb, 0xa2, 0xc0, 0xbd,
  0x2c, 0x8b, 0xad, 0xbd, 0x0e, 0xda, 0x2b, 0xbe, 0xfb, 0xb7, 0x00, 0x3e,
  0x46, 0x33, 0xaa, 0x3d, 0x96, 0xcd, 0x2d, 0xbe, 0x54, 0x3b, 0x57, 0x3c,
  0x51, 0x49, 0x12, 0x3e, 0xac, 0x70, 0x81, 0xbe, 0xb5, 0x64, 0x10, 0xbe,
  0x35, 0xcf, 0x0d, 0xbe, 0x12, 0x4e, 0xcc, 0xbd, 0xd3, 0xc9, 0x41, 0x3e,
  0x4d, 0x27, 0x84, 0xbd, 0x13, 0xa8, 0x02, 0xbe, 0xd1, 0x0b, 0xf8, 0x3c,
  0x90, 0x2a, 0x58, 0x3d, 0x7f, 0x65, 0x8a, 0xbe, 0x22, 0x5b, 0x1b, 0xbe,
  0xc1, 0x41, 0x77, 0x3d, 0x08, 0xbc, 0x09, 0x3e, 0x6c, 0x98, 0x13, 0x3e,
  0x2f, 0x99, 0x8b, 0x3c, 0x6b, 0xec, 0xec, 0x3d, 0xd9, 0x5c, 0x11, 0xbe,
  0x95, 0x1f, 0xae, 0x3c, 0x19, 0x0a, 0x17, 0xbd, 0xab, 0x0d, 0x29, 0xbb,
  0xf6, 0x82, 0x09, 0xbe, 0x63, 0x96, 0x0e, 0x3d, 0xf9, 0x54, 0x00, 0xbb,
  0x5d, 0x6d, 0x99, 0xbd, 0x48, 0xca, 0xbf, 0x3d, 0x0b, 0x9c, 0x26, 0xbe,
  0x1b, 0xbf, 0xaa, 0xbb, 0x69, 0x49, 0x09, 0x3e, 0x75, 0x49, 0x4b, 0xbd,
  0x72, 0x28, 0x22, 0xbe, 0x78, 0xcc, 0x20, 0xbe, 0xbc, 0xc7, 0x46, 0xbe,
  0x48, 0x2a, 0x82, 0x3c, 0x95, 0x44, 0x1d, 0xbe, 0x14, 0xf5, 0x39, 0xbe,
  0x91, 0xfa, 0xe8, 0x3d, 0x44, 0x19, 0x19, 0x3d, 0x8d, 0x4f, 0xe1, 0xbd,
  0x15, 0x6f, 0xbe, 0x3d, 0x23, 0x6a, 0xd0, 0x3c, 0xd0, 0xb4, 0x37, 0xbd,
  0x59, 0x89, 0x96, 0xbe, 0xe6, 0x9e, 0x2e, 0xbe, 0xfd, 0xe3, 0xb3, 0xbd,
  0xb1, 0x90, 0x9e, 0xbd, 0x4b, 0x76, 0x51, 0x3d, 0xde, 0xd9, 0x49, 0x3d,
  0x82, 0xf5, 0x04, 0x3c, 0x25, 0xc7, 0x04, 0x3e, 0x44, 0x35, 0x55, 0xbe,
  0xa2, 0x40, 0xf4, 0x3c, 0x04, 0x0b, 0x27, 0xbe, 0x7e, 0xc9, 0x5d, 0xbc,
  0x28, 0x3b, 0x64, 0xbe, 0x19, 0x32, 0x58, 0xbd, 0x31, 0x3d, 0x4a, 0xbe,
  0x7a, 0xd9, 0x01, 0xbb, 0x79, 0x69, 0x12, 0xbe, 0x66, 0x95, 0x1a, 0xbd,
  0xd5, 0xdc, 0x03, 0xbd, 0x32, 0xe2, 0x00, 0xbe, 0x42, 0xc5, 0xe3, 0xbd,
  0xa5, 0x71, 0xa3, 0xbd, 0x40, 0xe6, 0xf0, 0x3d, 0x86, 0xc0, 0x46, 0xbd,
  0x79, 0xd9, 0x91, 0xbd, 0x1a, 0xaa, 0x4a, 0x3e, 0xb1, 0x16, 0x4e, 0x3d,
  0x2f, 0xce, 0xe7, 0x3d, 0x94, 0xf4, 0x67, 0x3d, 0xa4, 0x0b, 0x92, 0xbd,
  0x8c, 0xbb, 0x81, 0xbb, 0xfe, 0xc6, 0x15, 0xbe, 0xfe, 0x22, 0x62, 0xbe,
  0x04, 0x77, 0x55, 0xbd, 0x42, 0xa7, 0x17, 0xbd, 0x8e, 0x5f, 0x96, 0xbd,
  0xf3, 0x32, 0xa4, 0xbc, 0xa5, 0x31, 0xdc, 0xbc, 0xcf, 0x0e, 0x90, 0x3c,
  0xec, 0x27, 0x62, 0x3d, 0xb5, 0xb6, 0xed, 0x3d, 0xb0, 0xad, 0x36, 0xbe,
  0xc4, 0xee, 0x26, 0xbe, 0x99, 0x07, 0x39, 0x3c, 0x86, 0x87, 0x3c, 0xbd,
  0x01, 0x84, 0xde, 0xbd, 0xef, 0x2c, 0xda, 0xbc, 0x8d, 0xf3, 0x97, 0xbd,
  0xd0, 0xa2, 0xa1, 0x3d, 0xc7, 0xee, 0xf4, 0x3d, 0x33, 0x0a, 0x59, 0x3b,
  0xe6, 0xdb, 0xbd, 0xbd, 0xe2, 0x94, 0x43, 0xbe, 0x4a, 0xfe, 0xff, 0xff,
  0x10, 0x00, 0x00, 0x00, 0x05, 0x00, 0x00, 0x00, 0x14, 0x00, 0x00, 0x00,
  0x2c, 0x00, 0x00, 0x00, 0x02, 0x00, 0x00, 0x00, 0x10, 0x00, 0x00, 0x00,
  0x70, 0x00, 0x00, 0x00, 0x17, 0x00, 0x00, 0x00, 0x73, 0x65, 0x71, 0x75,
  0x65, 0x6e, 0x74, 0x69, 0x61, 0x6c, 0x2f, 0x64, 0x65, 0x6e, 0x73, 0x65,
  0x2f, 0x4d, 0x61, 0x74, 0x4d, 0x75, 0x6c, 0x00, 0x38, 0xfe, 0xff, 0xff,
  0x2e, 0xff, 0xff, 0xff, 0x04, 0x00, 0x00, 0x00, 0x08, 0x00, 0x00, 0x00,
  0xff, 0xff, 0xff, 0xff, 0x70, 0x00, 0x00, 0x00, 0x00, 0x00, 0x0e, 0x00,
  0x18, 0x00, 0x08, 0x00, 0x07, 0x00, 0x0c, 0x00, 0x10, 0x00, 0x14, 0x00,
  0x0e, 0x00, 0x00, 0x00, 0x00, 0x00, 0x00, 0x02, 0x10, 0x00, 0x00, 0x00,
  0x04, 0x00, 0x00, 0x00, 0x10, 0x00, 0x00, 0x00, 0x2c, 0x00, 0x00, 0x00,
  0x01, 0x00, 0x00, 0x00, 0x02, 0x00, 0x00, 0x00, 0x18, 0x00, 0x00, 0x00,
  0x73, 0x65, 0x71, 0x75, 0x65, 0x6e, 0x74, 0x69, 0x61, 0x6c, 0x2f, 0x66,
  0x6c, 0x61, 0x74, 0x74, 0x65, 0x6e, 0x2f, 0x43, 0x6f, 0x6e, 0x73, 0x74,
  0x00, 0x00, 0x00, 0x00, 0xa0, 0xfe, 0xff, 0xff, 0x96, 0xff, 0xff, 0xff,
  0x04, 0x00, 0x00, 0x00, 0x0c, 0x00, 0x00, 0x00, 0x9b, 0xc4, 0xbf, 0x3e,
  0x35, 0x6c, 0xb1, 0x3e, 0x5c, 0x31, 0xb7, 0xbf, 0x0a, 0xff, 0xff, 0xff,
  0x10, 0x00, 0x00, 0x00, 0x03, 0x00, 0x00, 0x00, 0x10, 0x00, 0x00, 0x00,
  0x3c, 0x00, 0x00, 0x00, 0x01, 0x00, 0x00, 0x00, 0x03, 0x00, 0x00, 0x00,
  0x29, 0x00, 0x00, 0x00, 0x73, 0x65, 0x71, 0x75, 0x65, 0x6e, 0x74, 0x69,
  0x61, 0x6c, 0x2f, 0x64, 0x65, 0x6e, 0x73, 0x65, 0x5f, 0x31, 0x2f, 0x42,
  0x69, 0x61, 0x73, 0x41, 0x64, 0x64, 0x2f, 0x52, 0x65, 0x61, 0x64, 0x56,
  0x61, 0x72, 0x69, 0x61, 0x62, 0x6c, 0x65, 0x4f, 0x70, 0x00, 0x00, 0x00,
  0x60, 0xff, 0xff, 0xff, 0x00, 0x00, 0x06, 0x00, 0x08, 0x00, 0x04, 0x00,
  0x06, 0x00, 0x00, 0x00, 0x04, 0x00, 0x00, 0x00, 0x40, 0x00, 0x00, 0x00,
  0x13, 0xe2, 0xba, 0xbd, 0x4e, 0xff, 0xf0, 0x3f, 0xcb, 0x8c, 0xee, 0x3e,
  0x27, 0x6c, 0x59, 0x3c, 0xe2, 0x66, 0xb3, 0xbd, 0xd4, 0x01, 0x68, 0x3e,
  0xa1, 0x1a, 0x8c, 0xbe, 0x9a, 0x78, 0x04, 0x3f, 0xdd, 0x45, 0x13, 0xbe,
  0x13, 0x19, 0x85, 0x3e, 0xbb, 0x30, 0x19, 0xbe, 0xec, 0x71, 0xf6, 0xbe,
  0xc5, 0xa9, 0xe4, 0xbd, 0xcc, 0xa5, 0x35, 0x3e, 0x3c, 0xac, 0x2b, 0x3e,
  0x83, 0x33, 0x06, 0xbe, 0xae, 0xff, 0xff, 0xff, 0x10, 0x00, 0x00, 0x00,
  0x02, 0x00, 0x00, 0x00, 0x10, 0x00, 0x00, 0x00, 0x3c, 0x00, 0x00, 0x00,
  0x01, 0x00, 0x00, 0x00, 0x10, 0x00, 0x00, 0x00, 0x27, 0x00, 0x00, 0x00,
  0x73, 0x65, 0x71, 0x75, 0x65, 0x6e, 0x74, 0x69, 0x61, 0x6c, 0x2f, 0x64,
  0x65, 0x6e, 0x73, 0x65, 0x2f, 0x42, 0x69, 0x61, 0x73, 0x41, 0x64, 0x64,
  0x2f, 0x52, 0x65, 0x61, 0x64, 0x56, 0x61, 0x72, 0x69, 0x61, 0x62, 0x6c,
  0x65, 0x4f, 0x70, 0x00, 0x04, 0x00, 0x06, 0x00, 0x04, 0x00, 0x00, 0x00,
  0x00, 0x00, 0x0e, 0x00, 0x14, 0x00, 0x04, 0x00, 0x00, 0x00, 0x08, 0x00,
  0x0c, 0x00, 0x10, 0x00, 0x0e, 0x00, 0x00, 0x00, 0x10, 0x00, 0x00, 0x00,
  0x01, 0x00, 0x00, 0x00, 0x1c, 0x00, 0x00, 0x00, 0x2c, 0x00, 0x00, 0x00,
  0x04, 0x00, 0x00, 0x00, 0x01, 0x00, 0x00, 0x00, 0x40, 0x00, 0x00, 0x00,
  0x03, 0x00, 0x00, 0x00, 0x01, 0x00, 0x00, 0x00, 0x0c, 0x00, 0x00, 0x00,
  0x63, 0x6f, 0x6e, 0x76, 0x32, 0x64, 0x5f, 0x69, 0x6e, 0x70, 0x75, 0x74,
  0x00, 0x00, 0x00, 0x00, 0xfc, 0xff, 0xff, 0xff, 0x04, 0x00, 0x04, 0x00,
  0x04, 0x00, 0x00, 0x00


};


unsigned int model_tflite_len = 12316;// Fill the int in `src/model.cc` here
